{
  "version": "1.0",
  "truncation": null,
  "padding": null,
  "added_tokens": [
    {
      "id": 0,
      "content": "[PAD]",
      "single_word": false,
      "lstrip": false,
      "rstrip": false,
      "normalized": false,
      "special": true
    },
    {
      "id": 1,
      "content": "[UNK]",
      "single_word": false,
      "lstrip": false,
      "rstrip": false,
      "normalized": false,
      "special": true
    },
    {
      "id": 2,
      "content": "[CLS]",
      "single_word": false,
      "lstrip": false,
      "rstrip": false,
      "normalized": false,
      "special": true
    },
    {
      "id": 3,
      "content": "[SEP]",
      "single_word": false,
      "lstrip": false,
      "rstrip": false,
      "normalized": false,
      "special": true
    },
    {
      "id": 4,
      "content": "[MASK]",
      "single_word": false,
      "lstrip": false,
      "rstrip": false,
      "normalized": false,
      "special": true
    }
  ],
  "normalizer": null,
  "pre_tokenizer": {
    "type": "ByteLevel",
    "add_prefix_space": true,
    "trim_offsets": true,
    "use_regex": true
  },
  "post_processor": null,
  "decoder": null,
  "model": {
    "type": "BPE",
    "dropout": null,
    "unk_token": null,
    "continuing_subword_prefix": null,
    "end_of_word_suffix": null,
    "fuse_unk": false,
    "byte_fallback": false,
    "ignore_merges": false,
    "vocab": {
      "[PAD]": 0,
      "[UNK]": 1,
      "[CLS]": 2,
      "[SEP]": 3,
      "[MASK]": 4,
      "!": 5,
      "\"": 6,
      "#": 7,
      "$": 8,
      "%": 9,
      "&": 10,
      "'": 11,
      "(": 12,
      ")": 13,
      "*": 14,
      "+": 15,
      ",": 16,
      "-": 17,
      ".": 18,
      "/": 19,
      "0": 20,
      "1": 21,
      "2": 22,
      "3": 23,
      "4": 24,
      "5": 25,
      "6": 26,
      "7": 27,
      "8": 28,
      "9": 29,
      ":": 30,
      ";": 31,
      "<": 32,
      "=": 33,
      ">": 34,
      "?": 35,
      "@": 36,
      "A": 37,
      "B": 38,
      "C": 39,
      "D": 40,
      "E": 41,
      "F": 42,
      "G": 43,
      "H": 44,
      "I": 45,
      "J": 46,
      "K": 47,
      "L": 48,
      "M": 49,
      "N": 50,
      "O": 51,
      "P": 52,
      "Q": 53,
      "R": 54,
      "S": 55,
      "T": 56,
      "U": 57,
      "V": 58,
      "W": 59,
      "X": 60,
      "Y": 61,
      "Z": 62,
      "[": 63,
      "\\": 64,
      "]": 65,
      "^": 66,
      "_": 67,
      "`": 68,
      "a": 69,
      "b": 70,
      "c": 71,
      "d": 72,
      "e": 73,
      "f": 74,
      "g": 75,
      "h": 76,
      "i": 77,
      "j": 78,
      "k": 79,
      "l": 80,
      "m": 81,
      "n": 82,
      "o": 83,
      "p": 84,
      "q": 85,
      "r": 86,
      "s": 87,
      "t": 88,
      "u": 89,
      "v": 90,
      "w": 91,
      "x": 92,
      "y": 93,
      "z": 94,
      "{": 95,
      "|": 96,
      "}": 97,
      "~": 98,
      "¢": 99,
      "£": 100,
      "¤": 101,
      "§": 102,
      "¨": 103,
      "©": 104,
      "«": 105,
      "±": 106,
      "´": 107,
      "¼": 108,
      "½": 109,
      "Â": 110,
      "Ã": 111,
      "Ġ": 112,
      "Ħ": 113,
      "ħ": 114,
      "ĸ": 115,
      "Ĺ": 116,
      "Ł": 117,
      "ł": 118,
      "Ġt": 119,
      "Ġa": 120,
      "he": 121,
      "in": 122,
      "Ġs": 123,
      "Ġthe": 124,
      "re": 125,
      "Ġw": 126,
      "Ġo": 127,
      "is": 128,
      "er": 129,
      "Ġb": 130,
      "Ġm": 131,
      "Ġf": 132,
      "nd": 133,
      "ha": 134,
      "it": 135,
      "ing": 136,
      "Ġc": 137,
      "en": 138,
      "or": 139,
      "ou": 140,
      "es": 141,
      "on": 142,
      "Ġto": 143,
      "ll": 144,
      "Ġp": 145,
      "Ġof": 146,
      "Ġd": 147,
      "Ġand": 148,
      "ed": 149,
      "Ġl": 150,
      "Ġin": 151,
      "an": 152,
      "as": 153,
      "at": 154,
      "ĠI": 155,
      "br": 156,
      "Ġ/": 157,
      "Ġ/>": 158,
      "om": 159,
      "ar": 160,
      "Ġth": 161,
      "Ġis": 162,
      "Ġg": 163,
      "ic": 164,
      "le": 165,
      "ot": 166,
      "hat": 167,
      "Ġe": 168,
      "Ġn": 169,
      "Ġbe": 170,
      "st": 171,
      "ct": 172,
      "ut": 173,
      "ly": 174,
      "Ġit": 175,
      "Ġh": 176,
      "al": 177,
      "ie": 178,
      "ĠT": 179,
      "ve": 180,
      "Ġmo": 181,
      "Ġha": 182,
      "il": 183,
      "Ġon": 184,
      "Ġre": 185,
      "Ġthat": 186,
      "Ġthis": 187,
      "ow": 188,
      "ver": 189,
      "Ġhe": 190,
      "Ġst": 191,
      "ra": 192,
      "'s": 193,
      "se": 194,
      "Ġwas": 195,
      "Ġ/><": 196,
      "im": 197,
      "id": 198,
      "Ġmov": 199,
      "ent": 200,
      "ad": 201,
      "et": 202,
      "ion": 203,
      "gh": 204,
      "ay": 205,
      "oo": 206,
      "ilm": 207,
      "Ġy": 208,
      "Ġan": 209,
      "Ġfilm": 210,
      "ch": 211,
      "Ġfor": 212,
      "all": 213,
      "ke": 214,
      "Ġu": 215,
      "ld": 216,
      "Ġmovie": 217,
      "ĠA": 218,
      "ĠThe": 219,
      "Ġse": 220,
      "ith": 221,
      "Ġwh": 222,
      ".<": 223,
      "ce": 224,
      "ĠS": 225,
      "Ġas": 226,
      "ir": 227,
      "Ġwith": 228,
      "Ġyou": 229,
      "ri": 230,
      "'t": 231,
      "her": 232,
      "ro": 233,
      "am": 234,
      "Ġnot": 235,
      "ĠB": 236,
      "ally": 237,
      "Ġbut": 238,
      "Ġli": 239,
      "ur": 240,
      "ill": 241,
      "ould": 242,
      "Ġwe": 243,
      "Ġ\"": 244,
      "ter": 245,
      "Ġsc": 246,
      "ome": 247,
      "Ġare": 248,
      "Ġj": 249,
      "Ġ(": 250,
      "ust": 251,
      "..": 252,
      "ck": 253,
      "Ġhave": 254,
      "Ġat": 255,
      "pe": 256,
      "ĠH": 257,
      "ble": 258,
      "ĠC": 259,
      "Ġk": 260,
      "ĠW": 261,
      "ĠM": 262,
      "Ġact": 263,
      "Ġsh": 264,
      "un": 265,
      "Ġso": 266,
      "em": 267,
      "ght": 268,
      "Ġsu": 269,
      "out": 270,
      "ul": 271,
      "ers": 272,
      "Ġhis": 273,
      "Ġdo": 274,
      "if": 275,
      "ess": 276,
      "ĠD": 277,
      "ood": 278,
      "pp": 279,
      "Ġfr": 280,
      "Ġone": 281,
      "Ġpl": 282,
      "Ġex": 283,
      "Ġma": 284,
      "Ġwho": 285,
      "Ġab": 286,
      "Ġall": 287,
      "ven": 288,
      "very": 289,
      "el": 290,
      "Ġthey": 291,
      "au": 292,
      "Ġcom": 293,
      "one": 294,
      "Ġsome": 295,
      "Ġcha": 296,
      "ous": 297,
      "art": 298,
      "Ġlike": 299,
      "Ġby": 300,
      "Ġher": 301,
      "ast": 302,
      "hing": 303,
      "Ġjust": 304,
      "Ġal": 305,
      "red": 306,
      "Ġwor": 307,
      "Ġor": 308,
      "ies": 309,
      "op": 310,
      "us": 311,
      "ain": 312,
      "Ġv": 313,
      "Ġr": 314,
      "ge": 315,
      "te": 316,
      "Ġde": 317,
      "ĠN": 318,
      "ol": 319,
      "Ġfrom": 320,
      "ĠF": 321,
      "Ġout": 322,
      "ĠP": 323,
      "ist": 324,
      "ĠL": 325,
      "ract": 326,
      "ant": 327,
      "Ġwhe": 328,
      "Ġme": 329,
      "ĠIt": 330,
      "Ġcon": 331,
      "ire": 332,
      "qu": 333,
      "Ġabout": 334,
      "ĠJ": 335,
      "Ġcan": 336,
      "Ġany": 337,
      "os": 338,
      "and": 339,
      "Ġne": 340,
      "ook": 341,
      "Ġun": 342,
      "pt": 343,
      "ive": 344,
      "um": 345,
      "ort": 346,
      "ory": 347,
      "Ġhas": 348,
      "ough": 349,
      "est": 350,
      "ud": 351,
      "fe": 352,
      "ich": 353,
      "ack": 354,
      "Ġno": 355,
      "ĠR": 356,
      "ation": 357,
      "Ġgo": 358,
      "ate": 359,
      "ig": 360,
      "ind": 361,
      "Ġgood": 362,
      "Ġcharact": 363,
      "Ġpro": 364,
      "Ġwould": 365,
      "Ġwat": 366,
      "Ġbad": 367,
      "res": 368,
      "Ġle": 369,
      "Ġup": 370,
      "ĠE": 371,
      "Ġget": 372,
      "his": 373,
      "ĠO": 374,
      "Ġtim": 375,
      "Ġmore": 376,
      "ity": 377,
      "Ġfa": 378,
      "Ġscen": 379,
      "Ġbec": 380,
      "han": 381,
      "ak": 382,
      "The": 383,
      "ound": 384,
      "ĠG": 385,
      "ight": 386,
      "Ġonly": 387,
      "Ġstory": 388,
      "nt": 389,
      "Ġfe": 390,
      "Ġwere": 391,
      "Ġman": 392,
      "Ġwhat": 393,
      "Ġthere": 394,
      "Ġshe": 395,
      "Ġeven": 396,
      "Ġhad": 397,
      "ther": 398,
      "lf": 399,
      "Ġreally": 400,
      "ial": 401,
      "Ġsee": 402,
      "Ġtr": 403,
      "Ġwatch": 404,
      "ong": 405,
      "Ġif": 406,
      "able": 407,
      "ause": 408,
      "Ġmy": 409,
      "Ġ-": 410,
      "Ġtime": 411,
      "Ġlo": 412,
      "ame": 413,
      "Ġthan": 414,
      "Ġwhen": 415,
      "Ġcould": 416,
      "ĠThis": 417,
      "are": 418,
      "Ġlook": 419,
      "ious": 420,
      "ick": 421,
      "ide": 422,
      "Ġbeen": 423,
      "Ġwhich": 424,
      "ite": 425,
      "Ġdid": 426,
      "Ġhim": 427,
      "Ġvery": 428,
      "ine": 429,
      "Ġover": 430,
      "oy": 431,
      "Ġcl": 432,
      "ag": 433,
      "ard": 434,
      "ink": 435,
      "itt": 436,
      "our": 437,
      "ore": 438,
      "Ġint": 439,
      "Ġbet": 440,
      "uch": 441,
      "...": 442,
      "ne": 443,
      "Ġ1": 444,
      "od": 445,
      "th": 446,
      "Ġte": 447,
      "int": 448,
      "Ġtheir": 449,
      "ure": 450,
      "Ġdoes": 451,
      "Ġpo": 452,
      "og": 453,
      "Ġmuch": 454,
      "ade": 455,
      "reat": 456,
      "ab": 457,
      "Ġshow": 458,
      "Ġbecause": 459,
      "ĠK": 460,
      "Ġother": 461,
      "Ġen": 462,
      "pl": 463,
      "Ġthem": 464,
      "ue": 465,
      "Ġend": 466,
      "irect": 467,
      "ond": 468,
      "Ġpre": 469,
      "Ġoff": 470,
      "other": 471,
      "ars": 472,
      "now": 473,
      "Ġtoo": 474,
      "ple": 475,
      "Ġsa": 476,
      "irst": 477,
      "Ġkill": 478,
      "Ġmade": 479,
      "ap": 480,
      "Ġhow": 481,
      "Ġplot": 482,
      "Ġpe": 483,
      "Ġsay": 484,
      "Ġdon": 485,
      "so": 486,
      "Ġmake": 487,
      "ice": 488,
      "ence": 489,
      "ny": 490,
      "Ġper": 491,
      "ment": 492,
      "Ġbl": 493,
      "ves": 494,
      "Ġar": 495,
      "Ġtw": 496,
      "Ġevery": 497,
      "Ġgu": 498,
      "ople": 499,
      "ĠY": 500,
      "Ġim": 501,
      "Ġdis": 502,
      "Ġway": 503,
      "Ġthing": 504,
      "ep": 505,
      "ty": 506,
      "ac": 507,
      "Ġhor": 508,
      "Ġcharacter": 509,
      "Ġdirect": 510,
      "Ġwr": 511,
      "Ġqu": 512,
      "Ġthink": 513,
      "fter": 514,
      "man": 515,
      "Ġpart": 516,
      "Ġus": 517,
      "Ġinto": 518,
      "ff": 519,
      "Ġmost": 520,
      "Ġseem": 521,
      "Ġpeople": 522,
      "Ġreal": 523,
      "ors": 524,
      "ress": 525,
      "ving": 526,
      "Ġknow": 527,
      "ose": 528,
      "ict": 529,
      "way": 530,
      "ĠV": 531,
      "Ġthen": 532,
      "age": 533,
      "Ġacting": 534,
      "Ġwill": 535,
      "Ġthr": 536,
      "gin": 537,
      "ĠAnd": 538,
      "Ġag": 539,
      "ish": 540,
      "oll": 541,
      "Ġfirst": 542,
      "Ġ'": 543,
      "ĠHe": 544,
      "ass": 545,
      "Ġmovies": 546,
      "Ġro": 547,
      "ake": 548,
      "for": 549,
      "Ġbetter": 550,
      "ile": 551,
      "ull": 552,
      "ĠIn": 553,
      "Ġyour": 554,
      "ful": 555,
      "ually": 556,
      "king": 557,
      "Ġam": 558,
      "Ġfun": 559,
      "ost": 560,
      "rest": 561,
      "ens": 562,
      "ber": 563,
      "ĠBut": 564,
      "Ġplay": 565,
      "Ġad": 566,
      "ian": 567,
      "Ġits": 568,
      "up": 569,
      "omet": 570,
      "iew": 571,
      "ry": 572,
      "Ġsp": 573,
      "Ġch": 574,
      "Ġinte": 575,
      "Ġwant": 576,
      "Ġfl": 577,
      "urn": 578,
      "Ġcharacters": 579,
      "Ġsl": 580,
      "fect": 581,
      "Ġever": 582,
      "Ġscene": 583,
      "iz": 584,
      "ng": 585,
      "Ġafter": 586,
      "own": 587,
      "pect": 588,
      "self": 589,
      "Ġseen": 590,
      "Ġ<": 591,
      "hed": 592,
      "cc": 593,
      "Ġwell": 594,
      "Ġtwo": 595,
      "less": 596,
      "Ġmin": 597,
      "Ġra": 598,
      "Ġfilms": 599,
      "Ġscenes": 600,
      "'ve": 601,
      "ise": 602,
      "Ġbeing": 603,
      "Ġspe": 604,
      "ical": 605,
      "Ġshould": 606,
      "thing": 607,
      "!!": 608,
      "Ġsomet": 609,
      "ell": 610,
      "hy": 611,
      "kes": 612,
      "ated": 613,
      "ror": 614,
      "Ġgreat": 615,
      "ittle": 616,
      "ary": 617,
      ").": 618,
      "du": 619,
      "Ġthrough": 620,
      "Ġgir": 621,
      "Ġalso": 622,
      "Ġser": 623,
      "nder": 624,
      "ather": 625,
      "get": 626,
      "ip": 627,
      "ĠThere": 628,
      "Ġguy": 629,
      "wn": 630,
      "Ġlittle": 631,
      "ought": 632,
      "),": 633,
      "Ġye": 634,
      "iend": 635,
      "'m": 636,
      "ting": 637,
      "per": 638,
      "ĠU": 639,
      "Ġdidn": 640,
      "ever": 641,
      "Ġ2": 642,
      "Ġnever": 643,
      "ffect": 644,
      "Ġscre": 645,
      "Ġwork": 646,
      "Ġinterest": 647,
      "ved": 648,
      "ason": 649,
      "Ġsomething": 650,
      "Ġback": 651,
      "Ġdes": 652,
      "me": 653,
      "Ġrem": 654,
      "ib": 655,
      "mer": 656,
      "ans": 657,
      "Ġnothing": 658,
      "Ġwhere": 659,
      "Ġmany": 660,
      "Ġlove": 661,
      "Ġwom": 662,
      "Ġche": 663,
      "Ġpoint": 664,
      "ces": 665,
      "--": 666,
      "ace": 667,
      "Ġter": 668,
      "Ġwatching": 669,
      "ense": 670,
      "Ġeffect": 671,
      "ran": 672,
      "Ġinc": 673,
      "Ġdec": 674,
      "Ġent": 675,
      "Ġfind": 676,
      "Ġfeel": 677,
      "**": 678,
      "lie": 679,
      "rd": 680,
      "Ġhere": 681,
      "Ġatt": 682,
      "app": 683,
      "be": 684,
      "vel": 685,
      "Ġactors": 686,
      "les": 687,
      "Ġbr": 688,
      "Ġcast": 689,
      "Ġrec": 690,
      "'re": 691,
      "ru": 692,
      "ild": 693,
      "rible": 694,
      "ript": 695,
      "ult": 696,
      "Ġgirl": 697,
      "Ġgoing": 698,
      "ual": 699,
      "Ġtal": 700,
      "ĠIf": 701,
      "arly": 702,
      "fore": 703,
      "ath": 704,
      "Ġhapp": 705,
      "rap": 706,
      "right": 707,
      "Ġsupp": 708,
      "Ġpr": 709,
      "Ġperfor": 710,
      "Ġhorror": 711,
      "Ġminut": 712,
      "ree": 713,
      "ĠSt": 714,
      "Ġfunny": 715,
      "ob": 716,
      "Ġap": 717,
      "Ġpret": 718,
      "Ġlife": 719,
      "Ġagain": 720,
      "ible": 721,
      "augh": 722,
      "we": 723,
      "ance": 724,
      "Ġunder": 725,
      "Ġsuch": 726,
      "Ġcont": 727,
      "ably": 728,
      "ach": 729,
      "Ġob": 730,
      "ase": 731,
      "Ġdoesn": 732,
      "ction": 733,
      "Ġscript": 734,
      "ci": 735,
      "Ġsame": 736,
      "Ġimp": 737,
      "Ġthese": 738,
      "Ġkid": 739,
      "ily": 740,
      "the": 741,
      "ks": 742,
      "ert": 743,
      "Ġbig": 744,
      "ents": 745,
      "Ġwhy": 746,
      "Ġfact": 747,
      "cial": 748,
      "ning": 749,
      "Ġstart": 750,
      "Ġsex": 751,
      "Ġreason": 752,
      "Ġdra": 753,
      "Ġdown": 754,
      "ater": 755,
      "ating": 756,
      "Ġgi": 757,
      "ia": 758,
      "Ġgot": 759,
      "Ġactually": 760,
      "Ġfew": 761,
      "Ġori": 762,
      "Ġanother": 763,
      "Ġpretty": 764,
      "ft": 765,
      "ying": 766,
      "Ġtri": 767,
      "Ġold": 768,
      "ool": 769,
      "igh": 770,
      "Ġorigin": 771,
      "Ġtra": 772,
      "Ġaw": 773,
      "Ġleast": 774,
      "Ġscreen": 775,
      "Ġperforman": 776,
      "Ġlot": 777,
      "Ġem": 778,
      "oss": 779,
      "ically": 780,
      "icul": 781,
      "vers": 782,
      "Ġworst": 783,
      "Ġbelie": 784,
      "Ġstill": 785,
      "Ġseems": 786,
      "Ġsur": 787,
      "Ġthought": 788,
      "Ġbefore": 789,
      "ĠYou": 790,
      "Ġcomple": 791,
      "Ġdirector": 792,
      "ience": 793,
      "old": 794,
      "Ġsim": 795,
      "Ġmis": 796,
      "Ġprodu": 797,
      "der": 798,
      "Ġtak": 799,
      "Ġset": 800,
      "Ġgive": 801,
      "upid": 802,
      "Ġoriginal": 803,
      "ead": 804,
      "ub": 805,
      "umb": 806,
      "Ġminutes": 807,
      "Ġfin": 808,
      "ention": 809,
      "ĠAl": 810,
      "ect": 811,
      "Ġinv": 812,
      "Ġappe": 813,
      "Ġfar": 814,
      "Ġlong": 815,
      "ĠShe": 816,
      "row": 817,
      "Ġ&": 818,
      "Ġturn": 819,
      "ark": 820,
      "Ġcomp": 821,
      "most": 822,
      "Ġstupid": 823,
      "aw": 824,
      "iting": 825,
      "Ġcou": 826,
      "Ġinteresting": 827,
      "Ġres": 828,
      "Ġthose": 829,
      "Ġnow": 830,
      "Ġmakes": 831,
      "oint": 832,
      "here": 833,
      "ines": 834,
      "Ġbor": 835,
      "Ġisn": 836,
      "ren": 837,
      "Ġput": 838,
      "osed": 839,
      "az": 840,
      "ery": 841,
      "Ġgen": 842,
      "Ġview": 843,
      "Ġaround": 844,
      "Ġbit": 845,
      "ons": 846,
      "ations": 847,
      "Ġke": 848,
      "Ġbest": 849,
      "oney": 850,
      "Ġyears": 851,
      "Ġi": 852,
      "Ġbook": 853,
      "Ġeffects": 854,
      "li": 855,
      "Ġbu": 856,
      "Ġfriend": 857,
      "iously": 858,
      "ody": 859,
      "ertain": 860,
      "de": 861,
      "ps": 862,
      "Ġmight": 863,
      "Ġdif": 864,
      "Ġhard": 865,
      "Ġcomed": 866,
      "Ġ3": 867,
      "Ġmom": 868,
      "ute": 869,
      "Ġcomplete": 870,
      "Ġapp": 871,
      "ĠCh": 872,
      "ately": 873,
      "Ġenough": 874,
      "ale": 875,
      "ions": 876,
      "Ġgets": 877,
      "rit": 878,
      "Ġacc": 879,
      "Ġcam": 880,
      "ĠAs": 881,
      "Ġkind": 882,
      "Ġanything": 883,
      "arr": 884,
      "Ġthough": 885,
      "cept": 886,
      "Ġsub": 887,
      "ock": 888,
      "Ġbot": 889,
      "Ġmay": 890,
      "Ġalmost": 891,
      "Ġtake": 892,
      "Ġmus": 893,
      "Ġdone": 894,
      "Ġkiller": 895,
      "oc": 896,
      "era": 897,
      "Ġfam": 898,
      "ĠThat": 899,
      "Ġwhile": 900,
      "Ġ19": 901,
      "Ġquite": 902,
      "iv": 903,
      "Ġsm": 904,
      "Ġlet": 905,
      "Ġthings": 906,
      "'ll": 907,
      "sp": 908,
      "view": 909,
      "ĠSo": 910,
      "Ġexpect": 911,
      "ialog": 912,
      "appoint": 913,
      "ched": 914,
      "Ġaud": 915,
      "Ġaway": 916,
      "Ġsha": 917,
      "ash": 918,
      "ĠWhat": 919,
      "Ġshot": 920,
      "Ġwhole": 921,
      "Ġneed": 922,
      "ign": 923,
      "Ġmoney": 924,
      "Ġsec": 925,
      "act": 926,
      "ave": 927,
      "Ġhour": 928,
      "Ġhigh": 929,
      "Ġsequ": 930,
      "Ġgoes": 931,
      "Ġdisappoint": 932,
      "ced": 933,
      "hen": 934,
      "Ġsound": 935,
      "stead": 936,
      "Ġnew": 937,
      "Ġrole": 938,
      "Ġboring": 939,
      "ince": 940,
      "Ġdialog": 941,
      "ĠThey": 942,
      "erson": 943,
      "Ġtell": 944,
      "inem": 945,
      "Ġhum": 946,
      "Ġrun": 947,
      "av": 948,
      "Ġmust": 949,
      "Ġlaugh": 950,
      "Ġbegin": 951,
      "xt": 952,
      "Ġright": 953,
      "Ġboy": 954,
      "its": 955,
      "ither": 956,
      "Ġread": 957,
      "Ġyoung": 958,
      "Ġmean": 959,
      "ER": 960,
      "Ġhalf": 961,
      "Ġrel": 962,
      "Ġlooks": 963,
      "Ġown": 964,
      "Ġday": 965,
      "Ġlack": 966,
      "Ġext": 967,
      "Ġmain": 968,
      "Ġsaw": 969,
      "ween": 970,
      "00": 971,
      "ho": 972,
      "joy": 973,
      "Ġide": 974,
      "Ġlooking": 975,
      "Ġbetween": 976,
      "meric": 977,
      "Ġsupposed": 978,
      "Ġcall": 979,
      "Ġless": 980,
      "ĠNot": 981,
      "'d": 982,
      "pr": 983,
      "Ġcome": 984,
      "\",": 985,
      "fort": 986,
      "Ġsense": 987,
      "Ġcour": 988,
      "ĠJo": 989,
      "Ġpoor": 990,
      "Ġterrible": 991,
      "gg": 992,
      "oot": 993,
      "ĠBl": 994,
      "Ġworth": 995,
      "Ġspecial": 996,
      "??": 997,
      "rent": 998,
      "Ġop": 999,
      "Ġcare": 1000,
      "Ġcinem": 1001,
      "Ġgr": 1002,
      "Ġhand": 1003,
      "Ġabs": 1004,
      "Ġenjoy": 1005,
      "ollow": 1006,
      "dd": 1007,
      "Ġwoman": 1008,
      "ward": 1009,
      "Ġwasn": 1010,
      "ĠAmeric": 1011,
      "ĠHow": 1012,
      "Ġanyone": 1013,
      "Ġchild": 1014,
      "Ġperformance": 1015,
      "Ġwal": 1016,
      "amp": 1017,
      "Ġsaid": 1018,
      "Ġaudience": 1019,
      "son": 1020,
      "ten": 1021,
      "Ġel": 1022,
      "Ġev": 1023,
      "Ġcomes": 1024,
      "Ġrather": 1025,
      "ize": 1026,
      "Ġbelieve": 1027,
      "\".": 1028,
      "Ġcle": 1029,
      "Ġlast": 1030,
      "ĠTim": 1031,
      "rill": 1032,
      "blem": 1033,
      "Ġsomeone": 1034,
      "Ġfail": 1035,
      "Ġcourse": 1036,
      "Ġes": 1037,
      "arn": 1038,
      "uring": 1039,
      "arent": 1040,
      "Ġlow": 1041,
      "Ġactor": 1042,
      "Ġmaking": 1043,
      "Ġconf": 1044,
      "udget": 1045,
      "Ġco": 1046,
      "ang": 1047,
      "atic": 1048,
      "Ġwaste": 1049,
      "ĠSc": 1050,
      ".\"": 1051,
      "inc": 1052,
      "Ġfound": 1053,
      "ative": 1054,
      "Ġwithout": 1055,
      "Ġexpl": 1056,
      "Ġawful": 1057,
      "Ġdiffe": 1058,
      "bably": 1059,
      "Ġ4": 1060,
      "read": 1061,
      "Ġbas": 1062,
      "Ġmur": 1063,
      "Ġmind": 1064,
      "Ġposs": 1065,
      "empt": 1066,
      "Ġcons": 1067,
      "Ġlead": 1068,
      "ject": 1069,
      "orn": 1070,
      "Ġins": 1071,
      "Ġreview": 1072,
      "ife": 1073,
      "Ġproblem": 1074,
      "ully": 1075,
      "Ġwomen": 1076,
      "Ġperson": 1077,
      "Ġgra": 1078,
      "Ġann": 1079,
      "Ġsure": 1080,
      "Ġrid": 1081,
      "Ġcomedy": 1082,
      "hes": 1083,
      "ĠBe": 1084,
      "Ġplace": 1085,
      "Ġworld": 1086,
      "Ġtimes": 1087,
      "Ġhappen": 1088,
      "Ġobv": 1089,
      "not": 1090,
      "Ġfan": 1091,
      "ings": 1092,
      "Ġpred": 1093,
      "ĠTH": 1094,
      "Ġexc": 1095,
      "IN": 1096,
      "yp": 1097,
      "Ġsince": 1098,
      "ouse": 1099,
      "ature": 1100,
      "ĠDon": 1101,
      "ew": 1102,
      "Ġbo": 1103,
      "ingly": 1104,
      "Ġcr": 1105,
      "Ġcre": 1106,
      "Ġcamera": 1107,
      "This": 1108,
      "Ġhaving": 1109,
      "Ġhead": 1110,
      "Ġjo": 1111,
      "Ġdeath": 1112,
      "Ġboth": 1113,
      "led": 1114,
      "ted": 1115,
      "ord": 1116,
      "ality": 1117,
      "ĠAn": 1118,
      "Ġprobably": 1119,
      "Ġfall": 1120,
      "orm": 1121,
      "Ġrest": 1122,
      "ĠWe": 1123,
      "Ġshort": 1124,
      "Ġleft": 1125,
      "Ġ--": 1126,
      "though": 1127,
      "Ġart": 1128,
      "Ġkeep": 1129,
      "Ġsecond": 1130,
      "ĠZ": 1131,
      "Ġpol": 1132,
      "icha": 1133,
      "Ġep": 1134,
      "Ġaction": 1135,
      "fortun": 1136,
      "Ġpredict": 1137,
      "ah": 1138,
      "co": 1139,
      "ness": 1140,
      "wood": 1141,
      "Ġtot": 1142,
      "Ġstar": 1143,
      "ros": 1144,
      "ograp": 1145,
      "olly": 1146,
      "Ġmusic": 1147,
      "body": 1148,
      "rom": 1149,
      "sy": 1150,
      "Ġsit": 1151,
      "ters": 1152,
      "olute": 1153,
      "Ġtrying": 1154,
      "ney": 1155,
      "onder": 1156,
      "Ġseries": 1157,
      "10": 1158,
      "ked": 1159,
      "ope": 1160,
      "Ġmon": 1161,
      "Ġstand": 1162,
      "ĠMan": 1163,
      "istic": 1164,
      "ibly": 1165,
      "Ġsort": 1166,
      "reak": 1167,
      "Ġbudget": 1168,
      "Ġpain": 1169,
      "ĠSp": 1170,
      "ird": 1171,
      "ĠUn": 1172,
      "Ġannoy": 1173,
      "uff": 1174,
      "Ã©": 1175,
      "Ġed": 1176,
      "ways": 1177,
      "Ġelse": 1178,
      "ex": 1179,
      "ply": 1180,
      "riend": 1181,
      "Ġfollow": 1182,
      "Ġcut": 1183,
      "Ġcra": 1184,
      "ount": 1185,
      "Ġgl": 1186,
      "ime": 1187,
      "Ġjob": 1188,
      "ĠWhen": 1189,
      "Ġexam": 1190,
      "Ġeverything": 1191,
      "Ġadd": 1192,
      "Ġattempt": 1193,
      "Ġfamily": 1194,
      "Ġidea": 1195,
      "aut": 1196,
      "ared": 1197,
      "ired": 1198,
      "ov": 1199,
      "uck": 1200,
      "Ġtit": 1201,
      "ote": 1202,
      "Ġeither": 1203,
      "Ġnight": 1204,
      "als": 1205,
      "ility": 1206,
      "ĠAr": 1207,
      "ĠDV": 1208,
      "Ġabsolute": 1209,
      "ev": 1210,
      "ling": 1211,
      "Ġcred": 1212,
      "ening": 1213,
      "ork": 1214,
      "Ġinstead": 1215,
      "ĠEven": 1216,
      "ideo": 1217,
      "Ġclass": 1218,
      "Ġentire": 1219,
      "Ġfriends": 1220,
      "ĠDVD": 1221,
      "Ġsk": 1222,
      "ret": 1223,
      "Ġthree": 1224,
      "Ġworse": 1225,
      "ĠFor": 1226,
      "Ġwatched": 1227,
      "Ġbecom": 1228,
      "Ġhimself": 1229,
      "play": 1230,
      "Ġblood": 1231,
      "Ġdecent": 1232,
      "lud": 1233,
      "Ġvers": 1234,
      "Ġcar": 1235,
      "ĠWell": 1236,
      "Ġchan": 1237,
      "Ġending": 1238,
      "Ġblack": 1239,
      "Ġflick": 1240,
      "Ġdram": 1241,
      "Ġcompletely": 1242,
      "ollywood": 1243,
      "cy": 1244,
      "oid": 1245,
      "reme": 1246,
      "Ġline": 1247,
      "ates": 1248,
      "Ġhome": 1249,
      "ray": 1250,
      "Ġactress": 1251,
      "Ġalways": 1252,
      "ĠJust": 1253,
      "Ġ10": 1254,
      "Ġslas": 1255,
      "Ġac": 1256,
      "Ġsing": 1257,
      "isod": 1258,
      "Ġrent": 1259,
      "Ġhel": 1260,
      "ĠAll": 1261,
      "urt": 1262,
      "Ġunt": 1263,
      "Ġsimply": 1264,
      "ĠChr": 1265,
      "It": 1266,
      "ee": 1267,
      "ler": 1268,
      "ues": 1269,
      "Ġfather": 1270,
      "otion": 1271,
      "chool": 1272,
      "....": 1273,
      "elt": 1274,
      "Ġcouldn": 1275,
      "Ġtalent": 1276,
      "Ġgiven": 1277,
      "Ġepisod": 1278,
      "ger": 1279,
      "ner": 1280,
      "Ġwonder": 1281,
      "ism": 1282,
      "Ġduring": 1283,
      "lease": 1284,
      "iece": 1285,
      "ĠFran": 1286,
      "ists": 1287,
      "Ġconv": 1288,
      "cially": 1289,
      "Ġsurpr": 1290,
      "Ġdifferent": 1291,
      "Ġmess": 1292,
      "ont": 1293,
      "itten": 1294,
      "Ġused": 1295,
      "ĠAmerican": 1296,
      "ampire": 1297,
      "ere": 1298,
      "Ġhat": 1299,
      "ised": 1300,
      "Ġmention": 1301,
      "ĠOne": 1302,
      "mend": 1303,
      "fortunately": 1304,
      "OT": 1305,
      "Ġlines": 1306,
      "ics": 1307,
      "Ġey": 1308,
      "Ġdoing": 1309,
      "Ġtry": 1310,
      "iculous": 1311,
      "Ġpredictable": 1312,
      "Ġslasher": 1313,
      "cer": 1314,
      "hip": 1315,
      "land": 1316,
      "sc": 1317,
      "wh": 1318,
      "Ġfem": 1319,
      "Ġport": 1320,
      "stand": 1321,
      "Ġhot": 1322,
      "Ġuse": 1323,
      "Ġclich": 1324,
      "Ġentertain": 1325,
      "Ġextreme": 1326,
      "Ġtitle": 1327,
      "fully": 1328,
      "Ġsad": 1329,
      "ison": 1330,
      "har": 1331,
      "Ġlater": 1332,
      "ĠTV": 1333,
      "illy": 1334,
      "ĠNo": 1335,
      "Ġtrue": 1336,
      "Ġhorrible": 1337,
      "Ġwrong": 1338,
      "Ġmiss": 1339,
      "Ġgener": 1340,
      "Ġversion": 1341,
      "ĠclichÃ©": 1342,
      "ec": 1343,
      "how": 1344,
      "ier": 1345,
      "press": 1346,
      "Ġcop": 1347,
      "ommend": 1348,
      "Ġearly": 1349,
      "ster": 1350,
      "tern": 1351,
      "olog": 1352,
      "velop": 1353,
      "ross": 1354,
      "Ġannoying": 1355,
      "bel": 1356,
      "crow": 1357,
      "hn": 1358,
      "ures": 1359,
      "Ġmother": 1360,
      "ited": 1361,
      "Ġtop": 1362,
      "Ġlist": 1363,
      "Ġbeaut": 1364,
      "Ġonce": 1365,
      "Ġrep": 1366,
      "Ġrecommend": 1367,
      "Ġimpress": 1368,
      "Ġabsolutely": 1369,
      "air": 1370,
      "bo": 1371,
      "mak": 1372,
      "Ġwent": 1373,
      "Ġdel": 1374,
      "Ġhero": 1375,
      "pecially": 1376,
      "Ġalong": 1377,
      "Ġgetting": 1378,
      "Ġclose": 1379,
      "Ġseemed": 1380,
      "Ġbecomes": 1381,
      "ail": 1382,
      "apt": 1383,
      "ove": 1384,
      "round": 1385,
      "ins": 1386,
      "Ġsy": 1387,
      "Ġnice": 1388,
      "Ġstud": 1389,
      "rib": 1390,
      "Ġcomment": 1391,
      "Ġface": 1392,
      "arecrow": 1393,
      "Ġcheap": 1394,
      "Ġtakes": 1395,
      "Ġridiculous": 1396,
      "Ġuntil": 1397,
      "Ġschool": 1398,
      "Ġfelt": 1399,
      "Ġcor": 1400,
      "Ġcrap": 1401,
      "Ġhope": 1402,
      "ider": 1403,
      "ides": 1404,
      "Ġass": 1405,
      "ames": 1406,
      "Ġvi": 1407,
      "Ġeveryone": 1408,
      "like": 1409,
      "Ġmoments": 1410,
      "ready": 1411,
      "Ġexample": 1412,
      "line": 1413,
      "void": 1414,
      "Ġph": 1415,
      "Ġalready": 1416,
      "used": 1417,
      "ump": 1418,
      "Ġyear": 1419,
      "Ġkids": 1420,
      "Ġproduction": 1421,
      "ix": 1422,
      "ied": 1423,
      "ike": 1424,
      "tic": 1425,
      "Ġwa": 1426,
      "Ġour": 1427,
      "Ġmat": 1428,
      "Ġpres": 1429,
      "Ġdist": 1430,
      "Ġeach": 1431,
      "uth": 1432,
      "ĠTh": 1433,
      "ung": 1434,
      "Ġhist": 1435,
      "iful": 1436,
      "Ġimag": 1437,
      "Ġwrit": 1438,
      "Ġparticul": 1439,
      "vi": 1440,
      "vis": 1441,
      "Ġid": 1442,
      "haps": 1443,
      "Ġcreat": 1444,
      "Ġtoget": 1445,
      "ann": 1446,
      "aring": 1447,
      "leas": 1448,
      "Ġstr": 1449,
      "arth": 1450,
      "Ġcount": 1451,
      "Ġbeginning": 1452,
      "ography": 1453,
      "Ġtogether": 1454,
      "iss": 1455,
      "ition": 1456,
      "ories": 1457,
      "Ġpass": 1458,
      "Ġdet": 1459,
      "ank": 1460,
      "Ġname": 1461,
      "Ġhu": 1462,
      "ĠHollywood": 1463,
      "ĠWh": 1464,
      "ĠMar": 1465,
      "Ġexcept": 1466,
      "ĠNew": 1467,
      "Ġshows": 1468,
      "Ġwriting": 1469,
      "Ġprom": 1470,
      "Ġdisappointed": 1471,
      "ĠJohn": 1472,
      "fin": 1473,
      "fic": 1474,
      "med": 1475,
      "ream": 1476,
      "sel": 1477,
      "ember": 1478,
      "pped": 1479,
      "aug": 1480,
      "Ġcomm": 1481,
      "Ġword": 1482,
      "Ġvideo": 1483,
      "ĠLu": 1484,
      "ĠEvery": 1485,
      "Ġseeing": 1486,
      "Ġteen": 1487,
      "Ġhours": 1488,
      "Ġviol": 1489,
      "ien": 1490,
      "oon": 1491,
      "yle": 1492,
      "Ġwife": 1493,
      "Ġcame": 1494,
      "onest": 1495,
      "Ġpur": 1496,
      "ching": 1497,
      "ĠThen": 1498,
      "ĠCl": 1499,
      "Ġdevelop": 1500,
      "Ġnext": 1501,
      "ude": 1502,
      "Ġinvol": 1503,
      "Ġcouple": 1504,
      "Ġdialogue": 1505,
      "80": 1506,
      "Ġsat": 1507,
      "Ġcoll": 1508,
      "Ġpat": 1509,
      "Ġpict": 1510,
      "Ġpiece": 1511,
      "Ġdr": 1512,
      "ott": 1513,
      "Ġele": 1514,
      "Ġexper": 1515,
      "Ġplayed": 1516,
      "Ġemotion": 1517,
      "Ġcinema": 1518,
      "Ġhelp": 1519,
      "Ġfemale": 1520,
      "Ġextremely": 1521,
      "cing": 1522,
      "day": 1523,
      "use": 1524,
      "Ġfight": 1525,
      "Ġcertain": 1526,
      "Ġret": 1527,
      "Ġstuff": 1528,
      "ĠSand": 1529,
      "...<": 1530,
      "unk": 1531,
      "Ġhowever": 1532,
      "Ġwritten": 1533,
      "Ġplays": 1534,
      "Ġinclud": 1535,
      "Ġsmall": 1536,
      "Ġtotally": 1537,
      "even": 1538,
      "pite": 1539,
      "ts": 1540,
      "vable": 1541,
      "Ġ5": 1542,
      "Ġz": 1543,
      "Ġcost": 1544,
      "aster": 1545,
      "ilar": 1546,
      "Ġform": 1547,
      "Ġlight": 1548,
      "Ġscary": 1549,
      "Ġguess": 1550,
      "Ġdirection": 1551,
      "ension": 1552,
      "Ġgirls": 1553,
      "Ġmurder": 1554,
      "ING": 1555,
      "ĠChrist": 1556,
      "Ġportray": 1557,
      "belie": 1558,
      "gan": 1559,
      "io": 1560,
      "ox": 1561,
      "Ġfans": 1562,
      "Ġoften": 1563,
      "Ġdri": 1564,
      "ane": 1565,
      "arb": 1566,
      "ley": 1567,
      "Ġeff": 1568,
      "Ġitself": 1569,
      "Ġhouse": 1570,
      "Ġdead": 1571,
      "Ġunc": 1572,
      "Ġloc": 1573,
      "Ġlooked": 1574,
      "Ġsays": 1575,
      "Ġquality": 1576,
      "Ġunderstand": 1577,
      "Ġcalled": 1578,
      "IL": 1579,
      "In": 1580,
      "OR": 1581,
      "ey": 1582,
      "Ġbra": 1583,
      "Ġpick": 1584,
      "Ġlame": 1585,
      "Ġstars": 1586,
      "Ġanim": 1587,
      "ĠMy": 1588,
      "Ġlea": 1589,
      "Ġothers": 1590,
      "ĠHowever": 1591,
      "Ġobvious": 1592,
      "ĠTHE": 1593,
      "!<": 1594,
      "ean": 1595,
      "jor": 1596,
      "Ġ.": 1597,
      "Ġmar": 1598,
      "Ġfull": 1599,
      "hable": 1600,
      "Ġcase": 1601,
      "Ġdull": 1602,
      "omb": 1603,
      "Ġstra": 1604,
      "idd": 1605,
      "ĠSome": 1606,
      "ĠJack": 1607,
      "Ġbadly": 1608,
      "Ġwanted": 1609,
      "Ġespecially": 1610,
      "Ġeffort": 1611,
      "And": 1612,
      "oil": 1613,
      "Ġ7": 1614,
      "erman": 1615,
      "Ġind": 1616,
      "ĠAt": 1617,
      "Ġshoot": 1618,
      "Ġcannot": 1619,
      "Ġtru": 1620,
      "Ġthinking": 1621,
      "Ġslow": 1622,
      "Ġperformances": 1623,
      "Ġtaken": 1624,
      "Ġappear": 1625,
      "Ġrelations": 1626,
      ").<": 1627,
      "If": 1628,
      "but": 1629,
      "cl": 1630,
      "ured": 1631,
      "ĠÂ": 1632,
      "Ġri": 1633,
      "ined": 1634,
      "chn": 1635,
      "ĠAd": 1636,
      "Ġsomew": 1637,
      "Ġrom": 1638,
      "There": 1639,
      "Ġplaying": 1640,
      "ized": 1641,
      "Ġincred": 1642,
      "Ġapparent": 1643,
      "Ġtruly": 1644,
      "cess": 1645,
      "gs": 1646,
      "mp": 1647,
      "na": 1648,
      "to": 1649,
      "Ġdem": 1650,
      "att": 1651,
      "Ġthrill": 1652,
      "veral": 1653,
      "ets": 1654,
      "ĠAfter": 1655,
      "Ġself": 1656,
      "ĠHis": 1657,
      "Ġsusp": 1658,
      "Ġlost": 1659,
      "aged": 1660,
      "Ġkilled": 1661,
      "Ġsexual": 1662,
      "Ġgives": 1663,
      "ĠAlso": 1664,
      "Ġbeautiful": 1665,
      "selves": 1666,
      "aul": 1667,
      "hind": 1668,
      "my": 1669,
      "hetic": 1670,
      "Ġwon": 1671,
      "Ġhonest": 1672,
      "Ġyet": 1673,
      "Ġseveral": 1674,
      "cell": 1675,
      "ustr": 1676,
      "ĠMr": 1677,
      "Ġmajor": 1678,
      "Ġfav": 1679,
      "Ġquest": 1680,
      "Ġadm": 1681,
      "Ġtries": 1682,
      "aa": 1683,
      "iver": 1684,
      "oice": 1685,
      "iness": 1686,
      "Ġmed": 1687,
      "Ġtown": 1688,
      "Ġpast": 1689,
      "ower": 1690,
      "ĠBrit": 1691,
      "Ġsuck": 1692,
      "ĠDav": 1693,
      "Ġvir": 1694,
      "ĠPet": 1695,
      "ĠEd": 1696,
      "ĠOn": 1697,
      "Ġkilling": 1698,
      "Ġthroughout": 1699,
      "Ġstarted": 1700,
      "Ġmoment": 1701,
      "Ġsequel": 1702,
      "Ġhuman": 1703,
      "Ġopening": 1704,
      "Ġconsider": 1705,
      "AN": 1706,
      "Ġdaugh": 1707,
      "Ġlaug": 1708,
      "Ġreg": 1709,
      "Ġstyle": 1710,
      "ram": 1711,
      "ided": 1712,
      "Ġwhite": 1713,
      "ĠWhy": 1714,
      "ĠDe": 1715,
      "Ġvis": 1716,
      "Ġvampire": 1717,
      "ĠNight": 1718,
      "Ġgore": 1719,
      "Ġwouldn": 1720,
      "ĠOK": 1721,
      "ĠYork": 1722,
      "Ġrape": 1723,
      "****": 1724,
      "Ġturns": 1725,
      "ichael": 1726,
      "sych": 1727,
      "Ġpicture": 1728,
      "ground": 1729,
      "yond": 1730,
      "Ġir": 1731,
      "Ġmen": 1732,
      "Ġmist": 1733,
      "Ġcult": 1734,
      "onic": 1735,
      "Ġtold": 1736,
      "Ġpay": 1737,
      "Ġpop": 1738,
      "ator": 1739,
      "leep": 1740,
      "Ġeas": 1741,
      "Ġstories": 1742,
      "rodu": 1743,
      "unch": 1744,
      "Ġsucc": 1745,
      "Ġsuper": 1746,
      "ĠOh": 1747,
      "itely": 1748,
      "Ġkills": 1749,
      "Ġsaying": 1750,
      "Ġguys": 1751,
      "Ġdeser": 1752,
      "Ġagainst": 1753,
      "Ġsuccess": 1754,
      ",\"": 1755,
      "St": 1756,
      "ives": 1757,
      "Ġtyp": 1758,
      "Ġocc": 1759,
      "ished": 1760,
      "Ġbreak": 1761,
      "Ġfine": 1762,
      "ities": 1763,
      "Ġdumb": 1764,
      "Ġhop": 1765,
      "ĠTo": 1766,
      "rop": 1767,
      "outh": 1768,
      "ĠNOT": 1769,
      "ĠRo": 1770,
      "Ġtrans": 1771,
      "itting": 1772,
      "Ġtook": 1773,
      "bert": 1774,
      "Ġfeeling": 1775,
      "ubb": 1776,
      "dden": 1777,
      "Ġepisode": 1778,
      "ĠSandler": 1779,
      "!\"": 1780,
      "LL": 1781,
      "band": 1782,
      "ype": 1783,
      "Ġsilly": 1784,
      "Ġdie": 1785,
      "Ġnone": 1786,
      "Ġbehind": 1787,
      "Ġref": 1788,
      "Ġstru": 1789,
      "ently": 1790,
      "ĠCol": 1791,
      "unny": 1792,
      "Ġalthough": 1793,
      "usband": 1794,
      "Ġfair": 1795,
      "Ġbecome": 1796,
      "Ġmyself": 1797,
      "Ġsave": 1798,
      "Ġparts": 1799,
      "Ġcheck": 1800,
      "Ġhappens": 1801,
      "Ġmaybe": 1802,
      "Ġshots": 1803,
      "Ġsequence": 1804,
      "Ġchildren": 1805,
      "Ġesc": 1806,
      "Ġhuge": 1807,
      "finitely": 1808,
      "ĠPeter": 1809,
      "?<": 1810,
      "ON": 1811,
      "ax": 1812,
      "friend": 1813,
      "go": 1814,
      "Ġ$": 1815,
      "Ġ,": 1816,
      "Ġside": 1817,
      "Ġwar": 1818,
      "Ġmor": 1819,
      "Ġgun": 1820,
      "alk": 1821,
      "alent": 1822,
      "Ġstop": 1823,
      "illion": 1824,
      "Ġscarecrow": 1825,
      "Ġaren": 1826,
      "ific": 1827,
      "Ġexact": 1828,
      "Ġexpress": 1829,
      "ĠOf": 1830,
      "ages": 1831,
      "ards": 1832,
      "Ġroles": 1833,
      "Ġadv": 1834,
      "!!!!": 1835,
      "Ġremember": 1836,
      "ibility": 1837,
      "Ġstarts": 1838,
      "Ġfinally": 1839,
      "Ġappears": 1840,
      "Ġcreep": 1841,
      "Ġrelationship": 1842,
      "aid": 1843,
      "sh": 1844,
      "ining": 1845,
      "Ġsw": 1846,
      "Ġopp": 1847,
      "itive": 1848,
      "oun": 1849,
      "Ġpot": 1850,
      "Ġpsych": 1851,
      "ĠIM": 1852,
      "arl": 1853,
      "Ġgave": 1854,
      "Ġhusband": 1855,
      "Ġsoon": 1856,
      "Ġsudden": 1857,
      "ĠOr": 1858,
      "Ġtechn": 1859,
      "Ġthemselves": 1860,
      "Ġperhaps": 1861,
      "Ġwants": 1862,
      "Ġterm": 1863,
      "Ġsupport": 1864,
      "Ġfinal": 1865,
      "Ġinvis": 1866,
      "Ġsubject": 1867,
      "cellent": 1868,
      ".)": 1869,
      "gy": 1870,
      "kay": 1871,
      "mm": 1872,
      "rid": 1873,
      "Ġut": 1874,
      "Ġsign": 1875,
      "orry": 1876,
      "omp": 1877,
      "Ġheard": 1878,
      "Ġstick": 1879,
      "imes": 1880,
      "ĠSte": 1881,
      "ĠMichael": 1882,
      "eman": 1883,
      "ular": 1884,
      "using": 1885,
      "Ġru": 1886,
      "Ġdeal": 1887,
      "Ġunf": 1888,
      "Ġunbelie": 1889,
      "umber": 1890,
      "Ġprof": 1891,
      "Ġlevel": 1892,
      "ĠKing": 1893,
      "Ġviewer": 1894,
      "Ġpossible": 1895,
      "EA": 1896,
      "OU": 1897,
      "ape": 1898,
      "dy": 1899,
      "ding": 1900,
      "mb": 1901,
      "off": 1902,
      "Ġ6": 1903,
      "Ġwood": 1904,
      "itch": 1905,
      "ene": 1906,
      "ones": 1907,
      "Ġbeyond": 1908,
      "Ġstay": 1909,
      "Ġfilmmak": 1910,
      "ried": 1911,
      "Ġliving": 1912,
      "ĠCon": 1913,
      "Ġexcellent": 1914,
      "ush": 1915,
      "ĠRe": 1916,
      "ments": 1917,
      "Ġago": 1918,
      "Ġamaz": 1919,
      "Ġcontin": 1920,
      "izek": 1921,
      "Ġobviously": 1922,
      "Ġbored": 1923,
      "ichard": 1924,
      "which": 1925,
      "iddle": 1926,
      "oor": 1927,
      "ug": 1928,
      "yn": 1929,
      "zy": 1930,
      "Ġmot": 1931,
      "ences": 1932,
      "orge": 1933,
      "Ġgarb": 1934,
      "otic": 1935,
      "Ġheart": 1936,
      "Ġstran": 1937,
      "ential": 1938,
      "ĠAm": 1939,
      "ĠSh": 1940,
      "ĠHer": 1941,
      "ĠMay": 1942,
      "ppy": 1943,
      "Ġchar": 1944,
      "Ġvill": 1945,
      "Ġdep": 1946,
      "ĠFirst": 1947,
      "Ġshown": 1948,
      "Ġyourself": 1949,
      "Ġspend": 1950,
      "Ġserious": 1951,
      "Ġbrother": 1952,
      "Ġfails": 1953,
      "Ġexplain": 1954,
      "evin": 1955,
      "Ġsingle": 1956,
      "Ġviolence": 1957,
      "As": 1958,
      "by": 1959,
      "ball": 1960,
      "ear": 1961,
      "ik": 1962,
      "lake": 1963,
      "Ġtreat": 1964,
      "Ġavoid": 1965,
      "ering": 1966,
      "nded": 1967,
      "Ġcol": 1968,
      "ouble": 1969,
      "Ġinf": 1970,
      "any": 1971,
      "ats": 1972,
      "alian": 1973,
      "ield": 1974,
      "ĠDis": 1975,
      "ĠNow": 1976,
      "Ġconst": 1977,
      "udity": 1978,
      "ĠRichard": 1979,
      "Ġstoryline": 1980,
      "Ġprev": 1981,
      "Ġdirected": 1982,
      "Ġusually": 1983,
      "ĠVer": 1984,
      "Ġseriously": 1985,
      "ibal": 1986,
      "Ġtried": 1987,
      "Ġwalking": 1988,
      "incing": 1989,
      "Ġeyes": 1990,
      "ĠAdam": 1991,
      "Ġfavor": 1992,
      "een": 1993,
      "ole": 1994,
      "wise": 1995,
      "Ġair": 1996,
      "reen": 1997,
      "Ġmater": 1998,
      "Ġmiddle": 1999,
      "Ġfast": 2000,
      "Ġfant": 2001,
      "Ġfig": 2002,
      "ony": 2003,
      "llow": 2004,
      "Ġdam": 2005,
      "Ġdue": 2006,
      "Ġinter": 2007,
      "ots": 2008,
      "Ġstere": 2009,
      "ĠAny": 2010,
      "ĠChar": 2011,
      "ĠDan": 2012,
      "usion": 2013,
      "ĠPl": 2014,
      "ĠPaul": 2015,
      "Ġnovel": 2016,
      "ĠRos": 2017,
      "ateur": 2018,
      "ĠEarth": 2019,
      "Ġprem": 2020,
      "Ġ20": 2021,
      "Ġchees": 2022,
      "Ġfinds": 2023,
      "Ġattract": 2024,
      "Ġtalking": 2025,
      "Ġimport": 2026,
      "Ġhumor": 2027,
      "Ġpoorly": 2028,
      "Ġclearly": 2029,
      "Ġjoke": 2030,
      "Ġsitu": 2031,
      "ovie": 2032,
      "ology": 2033,
      "Ġwait": 2034,
      "Ġcolle": 2035,
      "Ġcertainly": 2036,
      "ĠÂĸ": 2037,
      "Ġmaterial": 2038,
      "But": 2039,
      "aim": 2040,
      "awn": 2041,
      "ged": 2042,
      "Ġson": 2043,
      "Ġsong": 2044,
      "Ġplease": 2045,
      "Ġlaw": 2046,
      "Ġ/>\"": 2047,
      "Ġet": 2048,
      "Ġnudity": 2049,
      "Ġwasted": 2050,
      "Ġang": 2051,
      "ural": 2052,
      "ĠWith": 2053,
      "Ġplain": 2054,
      "Ġallow": 2055,
      "Ġsomehow": 2056,
      "astic": 2057,
      "Ġalone": 2058,
      "Ġrating": 2059,
      "ational": 2060,
      "lfriend": 2061,
      "Ġtheme": 2062,
      "Ġperfect": 2063,
      "acher": 2064,
      "Ġusual": 2065,
      "berlake": 2066,
      "Ġspeak": 2067,
      "Ġscreenplay": 2068,
      "Ġemb": 2069,
      "Ġdays": 2070,
      "Ġhotel": 2071,
      "Ġentertaining": 2072,
      "Ġstrong": 2073,
      "Ġreturn": 2074,
      "Ġapparently": 2075,
      "Ġsuspense": 2076,
      "Ġdaughter": 2077,
      "Ġgarbage": 2078,
      "Ġstereot": 2079,
      "EN": 2080,
      "com": 2081,
      "lic": 2082,
      "light": 2083,
      "Ġsent": 2084,
      "Ġfoot": 2085,
      "lling": 2086,
      "Ġdream": 2087,
      "Ġlad": 2088,
      "Ġhell": 2089,
      "ĠFre": 2090,
      "Ġleave": 2091,
      "aked": 2092,
      "Ġfeature": 2093,
      "Ġthrow": 2094,
      "Ġroom": 2095,
      "Ġamateur": 2096,
      "Ġintell": 2097,
      "Ġbuy": 2098,
      "Ġbuild": 2099,
      "Ġrunning": 2100,
      "Ġclassic": 2101,
      "Ġchance": 2102,
      "Ġdrama": 2103,
      "Ġhate": 2104,
      "Ġmatter": 2105,
      "Ġstraight": 2106,
      "Ġincredibly": 2107,
      "Ġexactly": 2108,
      "hic": 2109,
      "iqu": 2110,
      "nel": 2111,
      "ton": 2112,
      "uri": 2113,
      "Ġ9": 2114,
      "Ġ...": 2115,
      "Ġsick": 2116,
      "Ġtheater": 2117,
      "ero": 2118,
      "Ġfore": 2119,
      "Ġcool": 2120,
      "oul": 2121,
      "Ġpos": 2122,
      "Ġpull": 2123,
      "Ġdan": 2124,
      "Ġdark": 2125,
      "atography": 2126,
      "arge": 2127,
      "Ġreleas": 2128,
      "enty": 2129,
      "Ġant": 2130,
      "ceed": 2131,
      "ĠBr": 2132,
      "ement": 2133,
      "Ġchang": 2134,
      "Ġvict": 2135,
      "Ġdev": 2136,
      "Ġmeans": 2137,
      "osp": 2138,
      "ĠGo": 2139,
      "Ġfeat": 2140,
      "Ġwrite": 2141,
      "Ġquick": 2142,
      "iction": 2143,
      "ians": 2144,
      "Ġrap": 2145,
      "Ġgirlfriend": 2146,
      "Ġdesc": 2147,
      "Ġfeels": 2148,
      "Ġattention": 2149,
      "umbo": 2150,
      "Ġturned": 2151,
      "rench": 2152,
      "arrass": 2153,
      "ĠTimon": 2154,
      "Ġpolit": 2155,
      "Ġpolice": 2156,
      "ĠUnfortunately": 2157,
      "Ġacross": 2158,
      "Ġpresent": 2159,
      "ĠWhile": 2160,
      "Ġpurp": 2161,
      "ĠBritish": 2162,
      "ĠDavid": 2163,
      "Ġsuddenly": 2164,
      "Ġvillain": 2165,
      "ĠDisney": 2166,
      "Ġimportant": 2167,
      "AR": 2168,
      "OO": 2169,
      "ares": 2170,
      "ned": 2171,
      "Ġtype": 2172,
      "Ġable": 2173,
      "Ġage": 2174,
      "ino": 2175,
      "Ġbody": 2176,
      "Ġbrill": 2177,
      "Ġcau": 2178,
      "Ġcart": 2179,
      "oup": 2180,
      "ĠIs": 2181,
      "ĠSim": 2182,
      "amed": 2183,
      "Ġwee": 2184,
      "Ġweak": 2185,
      "ĠCan": 2186,
      "ĠWor": 2187,
      "Ġshock": 2188,
      "ula": 2189,
      "Ġmag": 2190,
      "Ġherself": 2191,
      "Ġwhether": 2192,
      "new": 2193,
      "Ġtele": 2194,
      "ĠKevin": 2195,
      "Ġdisg": 2196,
      "acon": 2197,
      "Ġknows": 2198,
      "Ġpoints": 2199,
      "Ġcontro": 2200,
      "Ġrespect": 2201,
      "Ġresult": 2202,
      "Ġboyfriend": 2203,
      "wards": 2204,
      "ĠTimberlake": 2205,
      "Ġpossibly": 2206,
      "Ġediting": 2207,
      "Ġimpression": 2208,
      "Ġparticularly": 2209,
      "Ġidi": 2210,
      "Ġcostum": 2211,
      "Ġleaves": 2212,
      "Ġsomewhat": 2213,
      "AT": 2214,
      "ST": 2215,
      "ky": 2216,
      "und": 2217,
      "Ġ`": 2218,
      "Ġill": 2219,
      "head": 2220,
      "Ġswe": 2221,
      "rely": 2222,
      "Ġbare": 2223,
      "Ġcat": 2224,
      "oud": 2225,
      "Ġiss": 2226,
      "Ġnumber": 2227,
      "Ġhit": 2228,
      "Ġones": 2229,
      "Ġask": 2230,
      "Ġweird": 2231,
      "Ġjump": 2232,
      "ĠWas": 2233,
      "ĠMc": 2234,
      "ĠMor": 2235,
      "ĠDo": 2236,
      "Ġfront": 2237,
      "Ġorder": 2238,
      "ĠProm": 2239,
      "Ġcann": 2240,
      "Ġunin": 2241,
      "ument": 2242,
      "Ġlearn": 2243,
      "ĠOver": 2244,
      "Ġmostly": 2245,
      "Ġreality": 2246,
      "ĠInstead": 2247,
      "Ġspent": 2248,
      "Ġdespite": 2249,
      "Ġbring": 2250,
      "Ġhappy": 2251,
      "Ġminute": 2252,
      "ublic": 2253,
      "Ġgenre": 2254,
      "Ġneeded": 2255,
      "Ġtells": 2256,
      "Ġreading": 2257,
      "hoeven": 2258,
      "Ġwalk": 2259,
      "Ġjokes": 2260,
      "ĠZizek": 2261,
      "Ġphot": 2262,
      "Ġpathetic": 2263,
      "Ġexperience": 2264,
      "ĠIMD": 2265,
      "Ġembarrass": 2266,
      "ĠFreeman": 2267,
      "Ġvictim": 2268,
      "What": 2269,
      "eal": 2270,
      "iod": 2271,
      "lin": 2272,
      "lish": 2273,
      "of": 2274,
      "Ġaver": 2275,
      "ination": 2276,
      "real": 2277,
      "Ġfive": 2278,
      "oub": 2279,
      "Ġpar": 2280,
      "Ġlate": 2281,
      "ĠTr": 2282,
      "Ġreve": 2283,
      "oof": 2284,
      "Ġforget": 2285,
      "key": 2286,
      "Ġlive": 2287,
      "Ġsci": 2288,
      "Ġvoice": 2289,
      "ĠIts": 2290,
      "ĠGe": 2291,
      "ĠGu": 2292,
      "Ġenc": 2293,
      "Ġperiod": 2294,
      "aced": 2295,
      "Ġusing": 2296,
      "Ġspoil": 2297,
      "Ġremake": 2298,
      "Ġdecided": 2299,
      "Ġtaking": 2300,
      "rence": 2301,
      "Ġmusical": 2302,
      "Ġlaughs": 2303,
      "Ġcinematography": 2304,
      "Ġevil": 2305,
      "Ġbased": 2306,
      "Ġfalls": 2307,
      "Ġdramatic": 2308,
      "ĠFranco": 2309,
      "Ġhistor": 2310,
      "Ġdevelopment": 2311,
      "alentine": 2312,
      "Ġutter": 2313,
      "ĠVerhoeven": 2314,
      "Ġpremise": 2315,
      "Ġstereotyp": 2316,
      "VER": 2317,
      "bing": 2318,
      "cher": 2319,
      "ph": 2320,
      "Ġ80": 2321,
      "Ġten": 2322,
      "Ġtast": 2323,
      "Ġwish": 2324,
      "Ġmem": 2325,
      "Ġfree": 2326,
      "Ġpower": 2327,
      "Ġlarge": 2328,
      "anet": 2329,
      "Ġnor": 2330,
      "Ġnorm": 2331,
      "Ġbeha": 2332,
      "uted": 2333,
      "iet": 2334,
      "Ġforg": 2335,
      "amie": 2336,
      "ĠBacon": 2337,
      "Ġscore": 2338,
      "ĠCar": 2339,
      "ĠMad": 2340,
      "Ġdefinitely": 2341,
      "ĠLe": 2342,
      "ĠJames": 2343,
      "Ġupon": 2344,
      "Ġeng": 2345,
      "aper": 2346,
      "berg": 2347,
      "!!!": 2348,
      "Ġscream": 2349,
      "Ġruns": 2350,
      "Ġcareer": 2351,
      "Ġhands": 2352,
      "Ġbasically": 2353,
      "Ġhappened": 2354,
      "Ġsurprised": 2355,
      "board": 2356,
      "Ġquestion": 2357,
      "ĠColumbo": 2358,
      "Ġcreepy": 2359,
      "Ġcheesy": 2360,
      "Ġreleased": 2361,
      "Ġaverage": 2362,
      "?)": 2363,
      "cle": 2364,
      "who": 2365,
      "Ġsn": 2366,
      "Ġsil": 2367,
      "Ġbar": 2368,
      "Ġmillion": 2369,
      "Ġfit": 2370,
      "Ġfour": 2371,
      "Ġfoc": 2372,
      "Ġcent": 2373,
      "estern": 2374,
      "Ġdest": 2375,
      "Ġles": 2376,
      "Ġinst": 2377,
      "Ġinde": 2378,
      "Ġ/>-": 2379,
      "Ġequ": 2380,
      "Ġnon": 2381,
      "Ġnarr": 2382,
      "ief": 2383,
      "ili": 2384,
      "Ġstre": 2385,
      "Ġyes": 2386,
      "ĠWat": 2387,
      "ĠWar": 2388,
      "Ġacted": 2389,
      "ĠDaw": 2390,
      "pping": 2391,
      "Ġmak": 2392,
      "venge": 2393,
      "ires": 2394,
      "Ġnear": 2395,
      "Ġunless": 2396,
      "ĠEng": 2397,
      "ĠGod": 2398,
      "Ġteam": 2399,
      "irector": 2400,
      "Ġuses": 2401,
      "Ġrealize": 2402,
      "Ġ30": 2403,
      "Ġaccent": 2404,
      "Ġexpected": 2405,
      "Ġgroup": 2406,
      "Ġfailed": 2407,
      "Ġhistory": 2408,
      "vision": 2409,
      "Ġlaughable": 2410,
      "Ġpotential": 2411,
      "Ġinvisible": 2412,
      "Ġunbelievable": 2413,
      "ĠMaybe": 2414,
      "ĠIMDb": 2415,
      "?\"": 2416,
      "OM": 2417,
      "OIL": 2418,
      "POIL": 2419,
      "bs": 2420,
      "cers": 2421,
      "cious": 2422,
      "eb": 2423,
      "ered": 2424,
      "ken": 2425,
      "look": 2426,
      "mosp": 2427,
      "rat": 2428,
      "ses": 2429,
      "work": 2430,
      "Ġer": 2431,
      "Ġsorry": 2432,
      "Ġwind": 2433,
      "ises": 2434,
      "ister": 2435,
      "ndom": 2436,
      "Ġpri": 2437,
      "Ġparent": 2438,
      "Ġlos": 2439,
      "Ġlab": 2440,
      "uter": 2441,
      "lying": 2442,
      "iel": 2443,
      "iety": 2444,
      "ĠTom": 2445,
      "Ġmove": 2446,
      "Ġhair": 2447,
      "Ġrese": 2448,
      "Ġrepe": 2449,
      "Ġrede": 2450,
      "ident": 2451,
      "ĠSha": 2452,
      "ĠSup": 2453,
      "irth": 2454,
      "urther": 2455,
      "Ġknew": 2456,
      "ĠWill": 2457,
      "ĠMac": 2458,
      "Ġsoft": 2459,
      "Ġsuff": 2460,
      "ĠDay": 2461,
      "Ġval": 2462,
      "antly": 2463,
      "ĠJamie": 2464,
      "Ġproject": 2465,
      "ogn": 2466,
      "Ġways": 2467,
      "Ġrandom": 2468,
      "Ġsometimes": 2469,
      "elly": 2470,
      "Ġworks": 2471,
      "Ġbrought": 2472,
      "Ġtalk": 2473,
      "Ġviewers": 2474,
      "Ġkept": 2475,
      "Ġcredit": 2476,
      "Ġcredits": 2477,
      "Ġeye": 2478,
      "ribly": 2479,
      "ungle": 2480,
      "Ġwriters": 2481,
      "Ġparticular": 2482,
      "Ġcountry": 2483,
      "Ġthriller": 2484,
      "Ġetc": 2485,
      "Ġreveal": 2486,
      "ĠDawson": 2487,
      "POILER": 2488,
      "AY": 2489,
      "cast": 2490,
      "cause": 2491,
      "ging": 2492,
      "ioc": 2493,
      "ming": 2494,
      "side": 2495,
      "that": 2496,
      "with": 2497,
      "where": 2498,
      "Ġsleep": 2499,
      "Ġbother": 2500,
      "Ġmet": 2501,
      "Ġcap": 2502,
      "Ġcapt": 2503,
      "Ġpure": 2504,
      "ices": 2505,
      "Ġbel": 2506,
      "Ġhold": 2507,
      "Ġrequ": 2508,
      "rack": 2509,
      "Ġliked": 2510,
      "Ġatmosp": 2511,
      "ĠHall": 2512,
      "ĠHines": 2513,
      "ĠWal": 2514,
      "unt": 2515,
      "Ġsus": 2516,
      "Ġsugg": 2517,
      "Ġexec": 2518,
      "Ġworking": 2519,
      "ĠFrench": 2520,
      "ĠPr": 2521,
      "ĠLet": 2522,
      "antic": 2523,
      "Ġconcer": 2524,
      "Ġanyway": 2525,
      "Ġgod": 2526,
      "Ġteacher": 2527,
      "ensive": 2528,
      "Ġadapt": 2529,
      "rupt": 2530,
      "Ġdraw": 2531,
      "Ġsimple": 2532,
      "Ġsimilar": 2533,
      "Ġbott": 2534,
      "Ġdisappointing": 2535,
      "Ġevent": 2536,
      "angu": 2537,
      "Ġcrazy": 2538,
      "Ġepisodes": 2539,
      "Ġwriter": 2540,
      "ĠRobert": 2541,
      "Ġcartoon": 2542,
      "ĠGeorge": 2543,
      "Ġlesb": 2544,
      "Ġsuggest": 2545,
      "My": 2546,
      "gu": 2547,
      "ior": 2548,
      "ored": 2549,
      "ĠQ": 2550,
      "Ġve": 2551,
      "Ġign": 2552,
      "Ġtou": 2553,
      "heck": 2554,
      "ina": 2555,
      "Ġsitting": 2556,
      "rew": 2557,
      "Ġodd": 2558,
      "Ġbab": 2559,
      "Ġcrit": 2560,
      "Ġporn": 2561,
      "Ġpaid": 2562,
      "Ġpublic": 2563,
      "Ġ/>--": 2564,
      "Ġisland": 2565,
      "Ġgame": 2566,
      "let": 2567,
      "Ġear": 2568,
      "Ġnamed": 2569,
      "Ġhilar": 2570,
      "Ġheav": 2571,
      "oose": 2572,
      "Ġforced": 2573,
      "ĠSch": 2574,
      "Ġaspect": 2575,
      "rific": 2576,
      "road": 2577,
      "ills": 2578,
      "ĠHarr": 2579,
      "ĠCha": 2580,
      "Ġdoll": 2581,
      "ession": 2582,
      "ĠDes": 2583,
      "Ġwhose": 2584,
      "Ġdeep": 2585,
      "ĠNe": 2586,
      "ĠFox": 2587,
      "ĠGold": 2588,
      "Ġtruth": 2589,
      "Ġclaim": 2590,
      "Ġintrodu": 2591,
      "Ġpost": 2592,
      "Ġshowing": 2593,
      "Ġends": 2594,
      "Ġtwist": 2595,
      "ĠYes": 2596,
      "Ġwrote": 2597,
      "Ġpointless": 2598,
      "Ġkidn": 2599,
      "Ġsetting": 2600,
      "Ġcomputer": 2601,
      "Ġhardly": 2602,
      "Ġexpecting": 2603,
      "Ġopin": 2604,
      "Ġenjoyable": 2605,
      "Ġtotal": 2606,
      "Ġglad": 2607,
      "Ġtalented": 2608,
      "Ġwonderful": 2609,
      "Ġstudent": 2610,
      "cessary": 2611,
      "Ġstrugg": 2612,
      "Ġfantas": 2613,
      "Ġbarely": 2614,
      "Ġmakers": 2615,
      "Ġredeem": 2616,
      "OW": 2617,
      "Oh": 2618,
      "So": 2619,
      "burn": 2620,
      "ches": 2621,
      "mas": 2622,
      "nery": 2623,
      "ric": 2624,
      "uous": 2625,
      "Ġtired": 2626,
      "reep": 2627,
      "ishing": 2628,
      "Ġbed": 2629,
      "Ġbunch": 2630,
      "Ġmil": 2631,
      "ital": 2632,
      "Ġcond": 2633,
      "llen": 2634,
      "asion": 2635,
      "omin": 2636,
      "ution": 2637,
      "Ġred": 2638,
      "ĠAustr": 2639,
      "ĠThese": 2640,
      "Ġjungle": 2641,
      "Ġkn": 2642,
      "Ġactual": 2643,
      "Ġsol": 2644,
      "Ġdoc": 2645,
      "Ġexist": 2646,
      "Ġmale": 2647,
      "Ġcoming": 2648,
      "Ġcomic": 2649,
      "ĠPer": 2650,
      "ĠLove": 2651,
      "Ġunfortunately": 2652,
      "Ġprov": 2653,
      "aking": 2654,
      "Ġmanaged": 2655,
      "Ġtrash": 2656,
      "Ġoverall": 2657,
      "Ġclim": 2658,
      "Ġimpl": 2659,
      "Ġamount": 2660,
      "Ġflat": 2661,
      "Ġ200": 2662,
      "Ġremote": 2663,
      "Ġbrut": 2664,
      "Ġcasting": 2665,
      "Ġprison": 2666,
      "Ġgiving": 2667,
      "Ġproducers": 2668,
      "Ġsets": 2669,
      "Ġlaughing": 2670,
      "ĠArt": 2671,
      "Ġgeneral": 2672,
      "ficult": 2673,
      "Ġinvolved": 2674,
      "Ġfighting": 2675,
      "Ġincluding": 2676,
      "Ġhonestly": 2677,
      "Ġeasily": 2678,
      "Ġfairly": 2679,
      "ĠRosar": 2680,
      "Ġintellig": 2681,
      "Ġtelevision": 2682,
      "Ġatmosphere": 2683,
      "'.": 2684,
      "?!": 2685,
      "ES": 2686,
      "ele": 2687,
      "ges": 2688,
      "ira": 2689,
      "lt": 2690,
      "oes": 2691,
      "rated": 2692,
      "sen": 2693,
      "uro": 2694,
      "Âħ": 2695,
      "Ġtension": 2696,
      "Ġmad": 2697,
      "Ġdoub": 2698,
      "Ġlim": 2699,
      "Ġland": 2700,
      "asc": 2701,
      "othy": 2702,
      "Ġnast": 2703,
      "str": 2704,
      "Ġmoder": 2705,
      "Ġhaven": 2706,
      "Ġstri": 2707,
      "imin": 2708,
      "Ġforward": 2709,
      "ĠAN": 2710,
      "Ġseason": 2711,
      "ĠBen": 2712,
      "ĠBra": 2713,
      "ĠMur": 2714,
      "Ġabove": 2715,
      "els": 2716,
      "Ġalien": 2717,
      "aine": 2718,
      "Ġran": 2719,
      "Ġconcept": 2720,
      "Ġneither": 2721,
      "ĠGood": 2722,
      "Ġweren": 2723,
      "ager": 2724,
      "Ġarri": 2725,
      "Ġimm": 2726,
      "Ġdirectors": 2727,
      "Ġslight": 2728,
      "ĠUS": 2729,
      "Ġtrail": 2730,
      "Ġlots": 2731,
      "Ġinvest": 2732,
      "Ġdifficult": 2733,
      "Ġneeds": 2734,
      "Ġdisappointment": 2735,
      "Ġsounds": 2736,
      "Ġopen": 2737,
      "ĠAmerica": 2738,
      "Ġcover": 2739,
      "Ġgrand": 2740,
      "Ġexcuse": 2741,
      "ĠDonna": 2742,
      "Ġattempts": 2743,
      "Ġassum": 2744,
      "attle": 2745,
      "Ġadmit": 2746,
      "Ġmedioc": 2747,
      "Ġvirus": 2748,
      "Ġescap": 2749,
      "Ġsupporting": 2750,
      "Ġfavorite": 2751,
      "Ġcollege": 2752,
      "Ġdancing": 2753,
      "Ġbrilli": 2754,
      "Ġdisgust": 2755,
      "Ġcannibal": 2756,
      "ĠHarris": 2757,
      "Ġmodern": 2758,
      "',": 2759,
      "All": 2760,
      "IS": 2761,
      "cent": 2762,
      "ius": 2763,
      "ser": 2764,
      "track": 2765,
      "wo": 2766,
      "Ġtheat": 2767,
      "Ġwin": 2768,
      "Ġbus": 2769,
      "Ġmix": 2770,
      "Ġfurther": 2771,
      "nding": 2772,
      "Ġcity": 2773,
      "Ġtoday": 2774,
      "Ġpleas": 2775,
      "Ġdress": 2776,
      "oman": 2777,
      "lex": 2778,
      "Ġnature": 2779,
      "Ġnames": 2780,
      "Ġrevenge": 2781,
      "Ġhear": 2782,
      "Ġstore": 2783,
      "cei": 2784,
      "ĠSouth": 2785,
      "Ġlives": 2786,
      "Ġexp": 2787,
      "Ġcomb": 2788,
      "uss": 2789,
      "ains": 2790,
      "ĠPe": 2791,
      "Ġmeet": 2792,
      "akes": 2793,
      "ĠKate": 2794,
      "ĠKelly": 2795,
      "Ġparty": 2796,
      "ĠVampire": 2797,
      "reston": 2798,
      "izing": 2799,
      "Ġworked": 2800,
      "***": 2801,
      "ĠStan": 2802,
      "Ġapart": 2803,
      "Ġreasons": 2804,
      "Ġnowhere": 2805,
      "Ġsubt": 2806,
      "Ġshame": 2807,
      "Ġclear": 2808,
      "Ġreviews": 2809,
      "Ġproblems": 2810,
      "Ġseconds": 2811,
      "ĠSpace": 2812,
      "Ġfollows": 2813,
      "Ġactresses": 2814,
      "Ġaccept": 2815,
      "Ġimagine": 2816,
      "Ġlocal": 2817,
      "ombie": 2818,
      "Ġanti": 2819,
      "Ġlesbian": 2820,
      "ĠFoxx": 2821,
      "70": 2822,
      "BC": 2823,
      "How": 2824,
      "action": 2825,
      "boy": 2826,
      "gic": 2827,
      "gest": 2828,
      "ially": 2829,
      "iven": 2830,
      "iac": 2831,
      "kable": 2832,
      "lict": 2833,
      "rr": 2834,
      "ura": 2835,
      "Ġtort": 2836,
      "Ġaut": 2837,
      "iny": 2838,
      "Ġwit": 2839,
      "ising": 2840,
      "Ġbought": 2841,
      "Ġmark": 2842,
      "Ġfill": 2843,
      "iter": 2844,
      "Ġcru": 2845,
      "Ġcorn": 2846,
      "orror": 2847,
      "esus": 2848,
      "Ġdru": 2849,
      "Ġla": 2850,
      "atural": 2851,
      "ĠInd": 2852,
      "aris": 2853,
      "Ġgay": 2854,
      "Ġnaked": 2855,
      "uts": 2856,
      "ĠTra": 2857,
      "Ġhar": 2858,
      "Ġhang": 2859,
      "ilt": 2860,
      "Ġstep": 2861,
      "Ġstage": 2862,
      "iment": 2863,
      "Ġnote": 2864,
      "ĠBon": 2865,
      "urd": 2866,
      "ĠWho": 2867,
      "Ġcompl": 2868,
      "Ġsomebody": 2869,
      "iest": 2870,
      "ĠFl": 2871,
      "ĠFrom": 2872,
      "ĠPreston": 2873,
      "ĠLau": 2874,
      "ants": 2875,
      "Ġmeant": 2876,
      "Ġunne": 2877,
      "pth": 2878,
      "ively": 2879,
      "ĠEuro": 2880,
      "ĠOsc": 2881,
      "Ġbecame": 2882,
      "ĠGerman": 2883,
      "Ġmyst": 2884,
      "ĠKay": 2885,
      "onde": 2886,
      "ondon": 2887,
      "Ġdisc": 2888,
      "Ġdirecting": 2889,
      "ĠVan": 2890,
      "ford": 2891,
      "form": 2892,
      "Ġdesper": 2893,
      "Ġdecides": 2894,
      "Ġrecogn": 2895,
      "Ġsuppose": 2896,
      "Ġprot": 2897,
      "Ġcompet": 2898,
      "Ġcamp": 2899,
      "ashion": 2900,
      "Ġhighly": 2901,
      "ĠScott": 2902,
      "Ġ40": 2903,
      "Ġmurde": 2904,
      "Ġpersonal": 2905,
      "ĠBecause": 2906,
      "Ġchange": 2907,
      "Ġrented": 2908,
      "Ġheroine": 2909,
      "Ġdrunk": 2910,
      "Ġformula": 2911,
      "Ġromance": 2912,
      "Ġsucks": 2913,
      "Ġmistake": 2914,
      "Ġtypical": 2915,
      "Ġwooden": 2916,
      "Ġfilmmakers": 2917,
      "ĠConnery": 2918,
      "Ġpurpose": 2919,
      "Ġtaste": 2920,
      "ĠSuperman": 2921,
      "Ġsuspect": 2922,
      "Ġmediocre": 2923,
      "ID": 2924,
      "fer": 2925,
      "ivers": 2926,
      "las": 2927,
      "more": 2928,
      "rous": 2929,
      "this": 2930,
      "ubr": 2931,
      "Ġ8": 2932,
      "inct": 2933,
      "Ġsens": 2934,
      "Ġmass": 2935,
      "Ġmaster": 2936,
      "Ġfield": 2937,
      "Ġcry": 2938,
      "Ġtowards": 2939,
      "Ġdies": 2940,
      "ara": 2941,
      "Ġthird": 2942,
      "Ġgone": 2943,
      "otten": 2944,
      "Ġhom": 2945,
      "Ġhol": 2946,
      "imension": 2947,
      "Ġfilmed": 2948,
      "Ġund": 2949,
      "ĠBer": 2950,
      "ĠBar": 2951,
      "ĠBurt": 2952,
      "urs": 2953,
      "ĠCG": 2954,
      "ĠMost": 2955,
      "unter": 2956,
      "ĠFilm": 2957,
      "ĠLondon": 2958,
      "Ġconne": 2959,
      "Ġconcl": 2960,
      "andy": 2961,
      "udic": 2962,
      "ĠOther": 2963,
      "Ġtrouble": 2964,
      "aging": 2965,
      "Ġ15": 2966,
      "epburn": 2967,
      "Ġrealistic": 2968,
      "Ġserial": 2969,
      "Ġsexy": 2970,
      "Ġappeal": 2971,
      "Ġappro": 2972,
      "arring": 2973,
      "Ġsequences": 2974,
      "Ġideas": 2975,
      "Ġground": 2976,
      "Ġenjoyed": 2977,
      "anger": 2978,
      "Ġcreate": 2979,
      "ĠAnother": 2980,
      "Ġkeeps": 2981,
      "ĠFranc": 2982,
      "Ġconvincing": 2983,
      "Ġhated": 2984,
      "Ġmentioned": 2985,
      "Ġsymp": 2986,
      "Ġwords": 2987,
      "Ġemotional": 2988,
      "Ġbrain": 2989,
      "Ġpicked": 2990,
      "Ġrip": 2991,
      "Ġculture": 2992,
      "Ġsituation": 2993,
      "Ġpositive": 2994,
      "Ġbehavi": 2995,
      "ĠEnglish": 2996,
      "Ġparents": 2997,
      "ielberg": 2998,
      "Ġremotely": 2999,
      "ĠStanley": 3000,
      "AC": 3001,
      "Don": 3002,
      "cha": 3003,
      "chable": 3004,
      "gain": 3005,
      "mist": 3006,
      "su": 3007,
      "tt": 3008,
      "uity": 3009,
      "Ġted": 3010,
      "Ġtale": 3011,
      "Ġaff": 3012,
      "hel": 3013,
      "Ġsqu": 3014,
      "isf": 3015,
      "erm": 3016,
      "Ġmas": 3017,
      "ites": 3018,
      "esome": 3019,
      "lly": 3020,
      "Ġdubb": 3021,
      "Ġlangu": 3022,
      "ances": 3023,
      "Ġgrow": 3024,
      "Ġnumb": 3025,
      "vey": 3026,
      "Ġstink": 3027,
      "eth": 3028,
      "irl": 3029,
      "ĠBad": 3030,
      "Ġlikes": 3031,
      "ĠCra": 3032,
      "ĠWood": 3033,
      "iff": 3034,
      "ĠDen": 3035,
      "ĠDid": 3036,
      "eless": 3037,
      "ousy": 3038,
      "Ġdeg": 3039,
      "ĠLike": 3040,
      "ĠJr": 3041,
      "ĠJim": 3042,
      "Ġnearly": 3043,
      "orty": 3044,
      "Ġfake": 3045,
      "Ġfear": 3046,
      "Ġloved": 3047,
      "ague": 3048,
      "ĠKubr": 3049,
      "Ġotherwise": 3050,
      "Ġdisco": 3051,
      "acing": 3052,
      "Ġknown": 3053,
      "ĠVery": 3054,
      "ĠValentine": 3055,
      "ĠHere": 3056,
      "Ġchick": 3057,
      "ips": 3058,
      "Ġremind": 3059,
      "Ġtrain": 3060,
      "Ġappeared": 3061,
      "Ġshallow": 3062,
      "Ġtelling": 3063,
      "Ġstandard": 3064,
      "Ġpainful": 3065,
      "ĠJustin": 3066,
      "Ġident": 3067,
      "Ġdetect": 3068,
      "Ġdetail": 3069,
      "ĠEverything": 3070,
      "Ġoccasion": 3071,
      "Ġhoping": 3072,
      "Ġstrange": 3073,
      "Ġfigure": 3074,
      "Ġattractive": 3075,
      "Ġfootage": 3076,
      "Ġfeatures": 3077,
      "Ġbottom": 3078,
      "Ġhilarious": 3079,
      "Ġopinion": 3080,
      "Ġfantasy": 3081,
      "ltim": 3082,
      "Ġbrilliant": 3083,
      "ĠSpacey": 3084,
      "An": 3085,
      "First": 3086,
      "On": 3087,
      "You": 3088,
      "bad": 3089,
      "back": 3090,
      "ders": 3091,
      "inally": 3092,
      "Ġsix": 3093,
      "rect": 3094,
      "Ġwarn": 3095,
      "Ġball": 3096,
      "Ġburn": 3097,
      "Ġfut": 3098,
      "nds": 3099,
      "ham": 3100,
      "esides": 3101,
      "Ġpun": 3102,
      "Ġdig": 3103,
      "lect": 3104,
      "Ġbeat": 3105,
      "ald": 3106,
      "ĠToo": 3107,
      "vered": 3108,
      "Ġrelease": 3109,
      "oween": 3110,
      "Ġstat": 3111,
      "Ġstab": 3112,
      "rage": 3113,
      "Ġfilming": 3114,
      "ĠAct": 3115,
      "ĠAlex": 3116,
      "Ġwhom": 3117,
      "irty": 3118,
      "room": 3119,
      "ĠBob": 3120,
      "ury": 3121,
      "ĠHepburn": 3122,
      "ĠMs": 3123,
      "ĠMart": 3124,
      "Ġability": 3125,
      "Ġrated": 3126,
      "Ġdepth": 3127,
      "Ġneg": 3128,
      "Ġunlike": 3129,
      "udd": 3130,
      "Ġprog": 3131,
      "ĠEx": 3132,
      "Ġended": 3133,
      "Ġthrown": 3134,
      "Ġamusing": 3135,
      "appy": 3136,
      "apped": 3137,
      "Ġtrack": 3138,
      "ĠYoung": 3139,
      "ĠAlthough": 3140,
      "Ġfamous": 3141,
      "Ġ1980": 3142,
      "Ġsoundtrack": 3143,
      "Ġmeaning": 3144,
      "Ġconflict": 3145,
      "Ġrepres": 3146,
      "Ġdistur": 3147,
      "ĠLuc": 3148,
      "ĠChristmas": 3149,
      "Ġromantic": 3150,
      "Ġunfunny": 3151,
      "Ġamazing": 3152,
      "ĠMorgan": 3153,
      "Ġhistorical": 3154,
      "Ġdestro": 3155,
      "POILERS": 3156,
      "Ġnasty": 3157,
      "ĠFrancis": 3158,
      "ĠKubrick": 3159,
      "19": 3160,
      "Al": 3161,
      "ED": 3162,
      "OL": 3163,
      "ech": 3164,
      "iens": 3165,
      "ker": 3166,
      "movie": 3167,
      "par": 3168,
      "sed": 3169,
      "time": 3170,
      "vol": 3171,
      "ze": 3172,
      "zz": 3173,
      "Ġspl": 3174,
      "rek": 3175,
      "rey": 3176,
      "Ġwall": 3177,
      "isia": 3178,
      "Ġbull": 3179,
      "Ġbase": 3180,
      "Ġmouth": 3181,
      "Ġfol": 3182,
      "Ġfasc": 3183,
      "Ġcir": 3184,
      "Ġcute": 3185,
      "esh": 3186,
      "Ġpile": 3187,
      "Ġdread": 3188,
      "Ġloud": 3189,
      "Ġine": 3190,
      "iced": 3191,
      "Ġnons": 3192,
      "stem": 3193,
      "Ġhack": 3194,
      "iding": 3195,
      "ades": 3196,
      "ĠSer": 3197,
      "ĠSean": 3198,
      "ribe": 3199,
      "Ġscare": 3200,
      "uster": 3201,
      "ĠWow": 3202,
      "ĠMorty": 3203,
      "Ġsum": 3204,
      "essed": 3205,
      "Ġplus": 3206,
      "aint": 3207,
      "ained": 3208,
      "Ġdepress": 3209,
      "ĠNaz": 3210,
      "osh": 3211,
      "Ġscenery": 3212,
      "agon": 3213,
      "agger": 3214,
      "itted": 3215,
      "ourne": 3216,
      "Ġintention": 3217,
      "Ġoffic": 3218,
      "Ġflaw": 3219,
      "hys": 3220,
      "Ġdesign": 3221,
      "Ġbrief": 3222,
      "Ġtalks": 3223,
      "ĠStone": 3224,
      "Ġproduced": 3225,
      "herent": 3226,
      "Ġbits": 3227,
      "Ġsubst": 3228,
      "Ġlets": 3229,
      "Ġsecret": 3230,
      "Ġwalks": 3231,
      "Ġevents": 3232,
      "Ġconfused": 3233,
      "Ġleads": 3234,
      "Ġbox": 3235,
      "Ġcrew": 3236,
      "ĠAnn": 3237,
      "Ġfalling": 3238,
      "ĠSpielberg": 3239,
      "Ġcarry": 3240,
      "Ġentertainment": 3241,
      "econd": 3242,
      "Ġsystem": 3243,
      "visible": 3244,
      "Ġexception": 3245,
      "Ġcommun": 3246,
      "Ġ50": 3247,
      "Ġ70": 3248,
      "Ġpopular": 3249,
      "Ġexpression": 3250,
      "Ġterms": 3251,
      "Ġdamn": 3252,
      "Ġlady": 3253,
      "ique": 3254,
      "Ġ90": 3255,
      "Ġquickly": 3256,
      "ĠWorld": 3257,
      "Ġscient": 3258,
      "Ġindeed": 3259,
      "Ġheavy": 3260,
      "Ġredeeming": 3261,
      "ĠAustralian": 3262,
      "ĠArtem": 3263,
      "Ġdoubt": 3264,
      "Ġconclusion": 3265,
      "!)": 3266,
      "One": 3267,
      "TH": 3268,
      "ba": 3269,
      "bit": 3270,
      "bed": 3271,
      "dow": 3272,
      "gar": 3273,
      "lo": 3274,
      "mark": 3275,
      "ns": 3276,
      "pher": 3277,
      "phy": 3278,
      "rant": 3279,
      "sing": 3280,
      "wr": 3281,
      "wart": 3282,
      "writ": 3283,
      "Ġ!": 3284,
      "Ġ*": 3285,
      "Ġ****": 3286,
      "Ġtun": 3287,
      "Ġtest": 3288,
      "Ġbreat": 3289,
      "Ġbright": 3290,
      "Ġfire": 3291,
      "Ġcele": 3292,
      "onv": 3293,
      "Ġpil": 3294,
      "Ġdance": 3295,
      "Ġdanger": 3296,
      "Ġlousy": 3297,
      "Ġinsp": 3298,
      "arre": 3299,
      "arch": 3300,
      "stinct": 3301,
      "Ġstock": 3302,
      "Ġultim": 3303,
      "iring": 3304,
      "Ġwithin": 3305,
      "rif": 3306,
      "ĠBy": 3307,
      "ille": 3308,
      "Ġjour": 3309,
      "cked": 3310,
      "ĠCool": 3311,
      "ĠCaine": 3312,
      "ĠMe": 3313,
      "Ġsoc": 3314,
      "Ġsumm": 3315,
      "ulting": 3316,
      "ĠDO": 3317,
      "aus": 3318,
      "Ġaliens": 3319,
      "Ġvar": 3320,
      "tered": 3321,
      "text": 3322,
      "ĠNat": 3323,
      "ĠLee": 3324,
      "ĠJe": 3325,
      "oses": 3326,
      "ackman": 3327,
      "Ġnobody": 3328,
      "ĠRed": 3329,
      "ĠEarl": 3330,
      "ĠOF": 3331,
      "ĠGra": 3332,
      "Ġmyster": 3333,
      "Ġclot": 3334,
      "Ġoffensive": 3335,
      "Ġgreatest": 3336,
      "Ġbackground": 3337,
      "Ġimpro": 3338,
      "Ġimposs": 3339,
      "Ġbiggest": 3340,
      "Ġtrip": 3341,
      "Ġbelievable": 3342,
      "Ġproducer": 3343,
      "Ġfinish": 3344,
      "Ġcompany": 3345,
      "Ġresp": 3346,
      "Ġfamili": 3347,
      "Ġbegins": 3348,
      "Ġextra": 3349,
      "ĠJovi": 3350,
      "Ġleading": 3351,
      "Ġcrime": 3352,
      "Ġartist": 3353,
      "Ġadded": 3354,
      "Ġsadly": 3355,
      "Ġmissed": 3356,
      "ĠclichÃ©d": 3357,
      "ĠclichÃ©s": 3358,
      "Ġcomments": 3359,
      "Ġcommon": 3360,
      "Ġportrayal": 3361,
      "Ġleaving": 3362,
      "Ġdeserve": 3363,
      "Ġcaught": 3364,
      "Ġcontrol": 3365,
      "Ġcostumes": 3366,
      "Ġstereotypes": 3367,
      "Ġdocument": 3368,
      "Ġtrailer": 3369,
      "Ġbusiness": 3370,
      "ceived": 3371,
      "ĠLaura": 3372,
      "Ġunnecessary": 3373,
      "ĠOscar": 3374,
      "udicrous": 3375,
      "Ġtedious": 3376,
      "Ġlanguage": 3377,
      "Ġdetective": 3378,
      "Ġdestroy": 3379,
      "pherd": 3380,
      "Ġcelebr": 3381,
      "\".<": 3382,
      ".,": 3383,
      "Even": 3384,
      "Mar": 3385,
      "Not": 3386,
      "Over": 3387,
      "SE": 3388,
      "To": 3389,
      "VE": 3390,
      "cceed": 3391,
      "eah": 3392,
      "gly": 3393,
      "hile": 3394,
      "no": 3395,
      "nter": 3396,
      "nold": 3397,
      "oke": 3398,
      "ron": 3399,
      "ras": 3400,
      "well": 3401,
      "Ġtone": 3402,
      "Ġaf": 3403,
      "Ġauth": 3404,
      "Ġsoul": 3405,
      "Ġsister": 3406,
      "Ġwed": 3407,
      "Ġoper": 3408,
      "Ġokay": 3409,
      "Ġban": 3410,
      "Ġbat": 3411,
      "Ġbirth": 3412,
      "Ġmer": 3413,
      "Ġment": 3414,
      "Ġfiction": 3415,
      "Ġfashion": 3416,
      "Ġcur": 3417,
      "Ġcell": 3418,
      "lla": 3419,
      "Ġpen": 3420,
      "Ġdad": 3421,
      "Ġlat": 3422,
      "Ġludicrous": 3423,
      "Ġinit": 3424,
      "Ġinform": 3425,
      "ĠIS": 3426,
      "Ġthin": 3427,
      "Ġgag": 3428,
      "ication": 3429,
      "ette": 3430,
      "Ġans": 3431,
      "Ġformer": 3432,
      "allon": 3433,
      "ĠAng": 3434,
      "ĠST": 3435,
      "Ġnotice": 3436,
      "Ġlif": 3437,
      "Ġlikable": 3438,
      "Ġweap": 3439,
      "ĠHackman": 3440,
      "ĠCity": 3441,
      "ĠCheck": 3442,
      "ĠMat": 3443,
      "Ġsold": 3444,
      "Ġsucceed": 3445,
      "Ġdog": 3446,
      "Ġfrustr": 3447,
      "Ġplenty": 3448,
      "Ġcompe": 3449,
      "aining": 3450,
      "terest": 3451,
      "ĠNO": 3452,
      "ĠNed": 3453,
      "ĠNich": 3454,
      "ĠPG": 3455,
      "ĠPat": 3456,
      "ĠPumb": 3457,
      "istent": 3458,
      "ĠItalian": 3459,
      "ĠJesus": 3460,
      "osen": 3461,
      "Ġunreal": 3462,
      "Ġprop": 3463,
      "ounds": 3464,
      "Ġloves": 3465,
      "Ġ13": 3466,
      "abin": 3467,
      "Ġshowed": 3468,
      "Ġthemes": 3469,
      "Ġendless": 3470,
      "Ġoffer": 3471,
      "Ġsaving": 3472,
      "Ġblah": 3473,
      "Ġtwists": 3474,
      "Ġagree": 3475,
      "Ġspot": 3476,
      "Ġfloor": 3477,
      "Ġinterested": 3478,
      "Ġdesire": 3479,
      "Ġpretent": 3480,
      "cient": 3481,
      "Ġviewing": 3482,
      "Ġ193": 3483,
      "Ġyounger": 3484,
      "Ġlacking": 3485,
      "ĠBlood": 3486,
      "ĠScarecrow": 3487,
      "Ġdifference": 3488,
      "Ġbasic": 3489,
      "Ġmurders": 3490,
      "Ġmonster": 3491,
      "Ġfollowing": 3492,
      "ovich": 3493,
      "ĠWells": 3494,
      "Ġsurprise": 3495,
      "while": 3496,
      "Ġmissing": 3497,
      "Ġgenerally": 3498,
      "Ġimpressive": 3499,
      "Ġstudents": 3500,
      "Ġcorrupt": 3501,
      "iences": 3502,
      "Ġelements": 3503,
      "Ġunconv": 3504,
      "Ġsomewhere": 3505,
      "Ġvirt": 3506,
      "Ġsuccessful": 3507,
      "ropri": 3508,
      "Ġchanged": 3509,
      "Ġweek": 3510,
      "ĠCanad": 3511,
      "Ġvictims": 3512,
      "Ġencoun": 3513,
      "Ġsilent": 3514,
      "Ġfocus": 3515,
      "looking": 3516,
      "Ġrepeated": 3517,
      "Ġvalue": 3518,
      "Ġrevealed": 3519,
      "Ġeventually": 3520,
      "Ġbaby": 3521,
      "ĠMurphy": 3522,
      "Ġinvestig": 3523,
      "Ġfamiliar": 3524,
      "ĠNichol": 3525,
      "\")": 3526,
      ")<": 3527,
      "50": 3528,
      ":<": 3529,
      "Now": 3530,
      "RE": 3531,
      "Th": 3532,
      "af": 3533,
      "ait": 3534,
      "aving": 3535,
      "bers": 3536,
      "con": 3537,
      "chan": 3538,
      "do": 3539,
      "face": 3540,
      "gen": 3541,
      "gra": 3542,
      "house": 3543,
      "know": 3544,
      "lan": 3545,
      "ma": 3546,
      "men": 3547,
      "mon": 3548,
      "nox": 3549,
      "over": 3550,
      "oices": 3551,
      "sm": 3552,
      "sha": 3553,
      "top": 3554,
      "wat": 3555,
      "year": 3556,
      "ÂĹ": 3557,
      "Ġver": 3558,
      "Ġest": 3559,
      "Ġwestern": 3560,
      "erry": 3561,
      "Ġbiz": 3562,
      "Ġflying": 3563,
      "Ġcard": 3564,
      "Ġcyn": 3565,
      "ese": 3566,
      "ester": 3567,
      "lled": 3568,
      "Ġpract": 3569,
      "Ġpunch": 3570,
      "Ġdying": 3571,
      "Ġinn": 3572,
      "athy": 3573,
      "Ġgreen": 3574,
      "Ġhy": 3575,
      "Ġhurt": 3576,
      "Ġmod": 3577,
      "Ġredu": 3578,
      "vern": 3579,
      "Ġstret": 3580,
      "sex": 3581,
      "oop": 3582,
      "ĠSure": 3583,
      "rian": 3584,
      "riff": 3585,
      "iller": 3586,
      "Ġ(\"": 3587,
      "Ġatro": 3588,
      "ĠHar": 3589,
      "ĠCamp": 3590,
      "ĠWest": 3591,
      "Ġship": 3592,
      "Ġsocial": 3593,
      "Ġdoz": 3594,
      "ift": 3595,
      "ified": 3596,
      "essa": 3597,
      "ĠDor": 3598,
      "Ġmach": 3599,
      "ops": 3600,
      "Ġrubb": 3601,
      "Ġoutside": 3602,
      "Ġmeets": 3603,
      "Ġconvey": 3604,
      "ĠJess": 3605,
      "ortun": 3606,
      "ĠOkay": 3607,
      "Ġmanages": 3608,
      "ode": 3609,
      "appe": 3610,
      "Ġblame": 3611,
      "Ġeverybody": 3612,
      "ĠYOU": 3613,
      "Ġthinks": 3614,
      "ĠInvisible": 3615,
      "Ġrace": 3616,
      "Ġspec": 3617,
      "Ġdecide": 3618,
      "Ġrecent": 3619,
      "ĠStar": 3620,
      "ĠStrat": 3621,
      "Ġunderground": 3622,
      "Ġcontest": 3623,
      "Ġobs": 3624,
      "Ġobnox": 3625,
      "ĠShepherd": 3626,
      "Ġresc": 3627,
      "azy": 3628,
      "Ġbuck": 3629,
      "Ġaccident": 3630,
      "Ġhalfway": 3631,
      "000": 3632,
      "ĠNothing": 3633,
      "ĠBlack": 3634,
      "????": 3635,
      "incent": 3636,
      "Ġinside": 3637,
      "Ġcrappy": 3638,
      "evil": 3639,
      "Ġskin": 3640,
      "Ġmessage": 3641,
      "Ġcops": 3642,
      "Ġviolent": 3643,
      "Ġdrink": 3644,
      "Ġzero": 3645,
      "Ġanimals": 3646,
      "Ġshooting": 3647,
      "Ġappearance": 3648,
      "Ġdemon": 3649,
      "ramatic": 3650,
      "Ġescape": 3651,
      "Ġwarning": 3652,
      "Ġrelationships": 3653,
      "Ġfilmmaker": 3654,
      "Ġcolor": 3655,
      "Ġprevious": 3656,
      "Ġamateurish": 3657,
      "urious": 3658,
      "Ġdescribe": 3659,
      "Ġissues": 3660,
      "Ġengaging": 3661,
      "Ġadaptation": 3662,
      "Ġclimax": 3663,
      "Ġmurdered": 3664,
      "Ġholes": 3665,
      "imensional": 3666,
      "Ġbehavior": 3667,
      "Ġfuture": 3668,
      "Ġdisturbing": 3669,
      "Ġcirc": 3670,
      "Ġdepressing": 3671,
      "ĠArtemisia": 3672,
      "Ġauthor": 3673,
      "Ġwedding": 3674,
      "Ġrubbish": 3675,
      "ĠStratten": 3676,
      "Ġobnoxious": 3677,
      "AD": 3678,
      "BI": 3679,
      "For": 3680,
      "IC": 3681,
      "IM": 3682,
      "Sp": 3683,
      "Some": 3684,
      "Who": 3685,
      "aire": 3686,
      "budget": 3687,
      "che": 3688,
      "done": 3689,
      "fl": 3690,
      "host": 3691,
      "ios": 3692,
      "just": 3693,
      "kin": 3694,
      "ms": 3695,
      "uc": 3696,
      "vate": 3697,
      "wer": 3698,
      "Ġ:": 3699,
      "ĠX": 3700,
      "Ġsle": 3701,
      "Ġsight": 3702,
      "Ġtheory": 3703,
      "reg": 3704,
      "reed": 3705,
      "ishes": 3706,
      "Ġbank": 3707,
      "Ġbroad": 3708,
      "Ġfright": 3709,
      "Ġfully": 3710,
      "itation": 3711,
      "Ġcash": 3712,
      "ena": 3713,
      "enn": 3714,
      "orter": 3715,
      "Ġpace": 3716,
      "Ġphys": 3717,
      "Ġdro": 3718,
      "Ġdate": 3719,
      "ana": 3720,
      "arget": 3721,
      "Ġthro": 3722,
      "Ġearth": 3723,
      "Ġner": 3724,
      "Ġnause": 3725,
      "Ġbear": 3726,
      "sters": 3727,
      "ctor": 3728,
      "cted": 3729,
      "utation": 3730,
      "ĠTO": 3731,
      "ilty": 3732,
      "ilities": 3733,
      "Ġmoving": 3734,
      "ooper": 3735,
      "Ġugly": 3736,
      "ĠAb": 3737,
      "ĠApp": 3738,
      "ĠAvoid": 3739,
      "ĠSm": 3740,
      "ĠSnow": 3741,
      "Ġasleep": 3742,
      "rived": 3743,
      "ĠBas": 3744,
      "ĠBig": 3745,
      "ĠBoy": 3746,
      "Ġscared": 3747,
      "pend": 3748,
      "ĠWH": 3749,
      "Ġdoor": 3750,
      "ously": 3751,
      "ushed": 3752,
      "Ġvul": 3753,
      "Ġrout": 3754,
      "ĠFu": 3755,
      "ĠFallon": 3756,
      "ĠJones": 3757,
      "Ġanywhere": 3758,
      "ands": 3759,
      "Ġunex": 3760,
      "ĠEm": 3761,
      "ĠON": 3762,
      "Ġfault": 3763,
      "arded": 3764,
      "Ġenv": 3765,
      "ples": 3766,
      "Ġprep": 3767,
      "ĠYet": 3768,
      "Ġimage": 3769,
      "aces": 3770,
      "Ġhorse": 3771,
      "Ġwilling": 3772,
      "Ġadult": 3773,
      "Ġminor": 3774,
      "Ġscrew": 3775,
      "Ġremo": 3776,
      "Ġchemist": 3777,
      "Ġincomp": 3778,
      "Ġrecord": 3779,
      "Ġdrawn": 3780,
      "Ġdragg": 3781,
      "Ġemp": 3782,
      "Ġputting": 3783,
      "Ġkey": 3784,
      "liver": 3785,
      "Ġcomedian": 3786,
      "Ġboys": 3787,
      "Ġclean": 3788,
      "Ġexplan": 3789,
      "Ġpaint": 3790,
      "Ġentirely": 3791,
      "played": 3792,
      "Ġchannel": 3793,
      "Ġcopy": 3794,
      "making": 3795,
      "Ġwaiting": 3796,
      "anned": 3797,
      "Ġsatisf": 3798,
      "Ġportrayed": 3799,
      "iverse": 3800,
      "Ġdeserves": 3801,
      "Ġtransl": 3802,
      "Ġpsycho": 3803,
      "riday": 3804,
      "ĠStewart": 3805,
      "Ġtreated": 3806,
      "ĠCharlie": 3807,
      "Ġpolitical": 3808,
      "Ġissue": 3809,
      "Ġembarrassing": 3810,
      "Ġutterly": 3811,
      "Ġnormally": 3812,
      "Ġforgotten": 3813,
      "ĠMadsen": 3814,
      "Ġstreet": 3815,
      "Ġwindow": 3816,
      "ĠGoldie": 3817,
      "Ġintroduced": 3818,
      "ĠRosario": 3819,
      "Ġslightly": 3820,
      "ĠEurope": 3821,
      "Ġmystery": 3822,
      "Ġdegree": 3823,
      "Ġrepresent": 3824,
      "Ġdreadful": 3825,
      "Ġinept": 3826,
      "Ġsociety": 3827,
      "Ġmysterious": 3828,
      "Ġclothes": 3829,
      "Ġimpossible": 3830,
      "Overall": 3831,
      "Ġcurrent": 3832,
      "Ġpretentious": 3833,
      "Ġbizarre": 3834,
      "Ġchemistry": 3835,
      "13": 3836,
      "Des": 3837,
      "Just": 3838,
      "NT": 3839,
      "Sc": 3840,
      "Un": 3841,
      "agh": 3842,
      "bur": 3843,
      "bell": 3844,
      "don": 3845,
      "hill": 3846,
      "ias": 3847,
      "oom": 3848,
      "ring": 3849,
      "ront": 3850,
      "tw": 3851,
      "vably": 3852,
      "ym": 3853,
      "Ġturt": 3854,
      "rel": 3855,
      "Ġwand": 3856,
      "isingly": 3857,
      "erk": 3858,
      "ergy": 3859,
      "Ġbag": 3860,
      "Ġbod": 3861,
      "Ġbath": 3862,
      "itor": 3863,
      "itions": 3864,
      "Ġcal": 3865,
      "Ġcable": 3866,
      "Ġpu": 3867,
      "Ġpaper": 3868,
      "Ġdied": 3869,
      "Ġloose": 3870,
      "ĠIr": 3871,
      "arily": 3872,
      "Ġthous": 3873,
      "oth": 3874,
      "utive": 3875,
      "alking": 3876,
      "ieces": 3877,
      "ĠTrek": 3878,
      "Ġonto": 3879,
      "Ġrevol": 3880,
      "Ġstation": 3881,
      "Ġstarring": 3882,
      "set": 3883,
      "imp": 3884,
      "Ġmoves": 3885,
      "chie": 3886,
      "alled": 3887,
      "ĠAre": 3888,
      "ĠShar": 3889,
      "irit": 3890,
      "riage": 3891,
      "rog": 3892,
      "amb": 3893,
      "ĠBE": 3894,
      "ĠBog": 3895,
      "ĠBBC": 3896,
      "ĠBourne": 3897,
      "Ġjoy": 3898,
      "ĠCount": 3899,
      "ĠMovie": 3900,
      "Ġacts": 3901,
      "emy": 3902,
      "Ġplastic": 3903,
      "aum": 3904,
      "Ġalright": 3905,
      "Ġorgan": 3906,
      "teen": 3907,
      "ĠNel": 3908,
      "ĠPlease": 3909,
      "ĠLar": 3910,
      "ĠLast": 3911,
      "que": 3912,
      "andon": 3913,
      "umps": 3914,
      "orts": 3915,
      "uddy": 3916,
      "fered": 3917,
      "Ġprove": 3918,
      "Ġwater": 3919,
      "ĠEl": 3920,
      "ĠEv": 3921,
      "ĠEVER": 3922,
      "Ġfaith": 3923,
      "They": 3924,
      "nton": 3925,
      "Ġfellow": 3926,
      "Ġmanner": 3927,
      "Ġwhatever": 3928,
      "idered": 3929,
      "Ġoverly": 3930,
      "Ġintri": 3931,
      "ths": 3932,
      "Ġtext": 3933,
      "Ġsaved": 3934,
      "Ġblonde": 3935,
      "Ġarg": 3936,
      "acc": 3937,
      "Ġrealized": 3938,
      "ĠVen": 3939,
      "ĠVincent": 3940,
      "ĠAnderson": 3941,
      "Ġrock": 3942,
      "ĠInstinct": 3943,
      "Ġchoice": 3944,
      "ipul": 3945,
      "ĠUnder": 3946,
      "Ġterribly": 3947,
      "Ġeffective": 3948,
      "Ġrecently": 3949,
      "uals": 3950,
      "Ġunderst": 3951,
      "aching": 3952,
      "they": 3953,
      "Ġtrad": 3954,
      "Ġsurround": 3955,
      "Ġmiscast": 3956,
      "Ġfinished": 3957,
      "Ġgenius": 3958,
      "Ġbooks": 3959,
      "lier": 3960,
      "Ġaccount": 3961,
      "Ġ199": 3962,
      "Ġsounded": 3963,
      "Ġrelative": 3964,
      "prise": 3965,
      "Ġcinematic": 3966,
      "Ġabsurd": 3967,
      "Ġconsidered": 3968,
      "Ġinsulting": 3969,
      "Ġreviewers": 3970,
      "Ġcrude": 3971,
      "Ġcrimin": 3972,
      "Ġfollowed": 3973,
      "Ġcredibility": 3974,
      "Ġlisten": 3975,
      "Ġinvolving": 3976,
      "Ġelect": 3977,
      "Ġzombie": 3978,
      "Ġmajority": 3979,
      "Ġquestions": 3980,
      "Ġlaughed": 3981,
      "Ġvampires": 3982,
      "Ġstruct": 3983,
      "alker": 3984,
      "Ġsituations": 3985,
      "Ġreturns": 3986,
      "Ġrapist": 3987,
      "Ġsweet": 3988,
      "ĠMcD": 3989,
      "ĠHalloween": 3990,
      "ĠPerhaps": 3991,
      "Ġbrutal": 3992,
      "Ġintelligent": 3993,
      "ĠPeople": 3994,
      "Ġtorture": 3995,
      "Ġwitness": 3996,
      "Ġnumbers": 3997,
      "Ġpilot": 3998,
      "Ġdocumentary": 3999,
      "ĠPumbaa": 4000,
      "Ġunconvincing": 4001,
      "ropriate": 4002,
      "ĠDorothy": 4003,
      "Ġexplanation": 4004,
      ".'": 4005,
      "AM": 4006,
      "AS": 4007,
      "He": 4008,
      "LY": 4009,
      "No": 4010,
      "RI": 4011,
      "That": 4012,
      "come": 4013,
      "dan": 4014,
      "fi": 4015,
      "hood": 4016,
      "iers": 4017,
      "iber": 4018,
      "oe": 4019,
      "oherent": 4020,
      "table": 4021,
      "uk": 4022,
      "uit": 4023,
      "uct": 4024,
      "ube": 4025,
      "what": 4026,
      "Ġess": 4027,
      "Ġtor": 4028,
      "Ġtur": 4029,
      "Ġahead": 4030,
      "Ġsal": 4031,
      "rend": 4032,
      "reci": 4033,
      "Ġble": 4034,
      "Ġmel": 4035,
      "Ġmult": 4036,
      "Ġfra": 4037,
      "Ġfool": 4038,
      "hab": 4039,
      "itter": 4040,
      "Ġcate": 4041,
      "eng": 4042,
      "Ġpan": 4043,
      "Ġintern": 4044,
      "ĠII": 4045,
      "ompl": 4046,
      "Ġgory": 4047,
      "ica": 4048,
      "lev": 4049,
      "Ġrend": 4050,
      "vert": 4051,
      "Ġheld": 4052,
      "Ġstuck": 4053,
      "eturn": 4054,
      "alling": 4055,
      "ĠALL": 4056,
      "Ġsees": 4057,
      "ĠSH": 4058,
      "ĠSe": 4059,
      "ĠSomet": 4060,
      "ĠSci": 4061,
      "irk": 4062,
      "iron": 4063,
      "ĠBran": 4064,
      "ĠBollywood": 4065,
      "ĠHunter": 4066,
      "ĠCreep": 4067,
      "ĠMax": 4068,
      "ĠDirector": 4069,
      "Ġplan": 4070,
      "ela": 4071,
      "artment": 4072,
      "Ġjustice": 4073,
      "Ġris": 4074,
      "Ġrate": 4075,
      "ĠNever": 4076,
      "ĠFBI": 4077,
      "ĠPro": 4078,
      "ĠPart": 4079,
      "ĠLL": 4080,
      "ĠLion": 4081,
      "Ġcontext": 4082,
      "qua": 4083,
      "ĠJul": 4084,
      "ĠJap": 4085,
      "Ġanybody": 4086,
      "Ġuns": 4087,
      "orth": 4088,
      "oughly": 4089,
      "ĠRob": 4090,
      "indere": 4091,
      "Ġproper": 4092,
      "resh": 4093,
      "Ġleg": 4094,
      "Ġclos": 4095,
      "Ġclue": 4096,
      "agers": 4097,
      "Ġ11": 4098,
      "ability": 4099,
      "Ġenergy": 4100,
      "Ġsac": 4101,
      "aph": 4102,
      "Ġdisplay": 4103,
      "Ġhorribly": 4104,
      "Ġseemingly": 4105,
      "Ġamong": 4106,
      "Ġplayer": 4107,
      "Ġchore": 4108,
      "Ġintended": 4109,
      "Ġflash": 4110,
      "Ġflesh": 4111,
      "lessly": 4112,
      "Ġspeed": 4113,
      "Ġremark": 4114,
      "Ġattack": 4115,
      "Ġbrings": 4116,
      "ĠStars": 4117,
      "Ġsurv": 4118,
      "Ġmiser": 4119,
      "Ġcompared": 4120,
      "Ġappreci": 4121,
      "Ġ1970": 4122,
      "Ġaudiences": 4123,
      "Ġhighlight": 4124,
      "Ġlacks": 4125,
      "Ġworthwhile": 4126,
      "???": 4127,
      "ĠTime": 4128,
      "arently": 4129,
      "Ġconfusing": 4130,
      ".\"<": 4131,
      "Ġhappening": 4132,
      "Ġexcess": 4133,
      "ledge": 4134,
      "ĠAnne": 4135,
      "Ġpainfully": 4136,
      "irds": 4137,
      "Ġsinging": 4138,
      "Ġsurprisingly": 4139,
      "Ġdeliver": 4140,
      "Ġcorny": 4141,
      "Ġcorrect": 4142,
      "annibal": 4143,
      "ĠWhich": 4144,
      "Ġteenage": 4145,
      "Ġincredible": 4146,
      "Ġconsidering": 4147,
      "Ġirrit": 4148,
      "onicles": 4149,
      "Ġeasy": 4150,
      "Ġadvent": 4151,
      "Ġadvice": 4152,
      "Ġruined": 4153,
      "Ġ60": 4154,
      "ĠReally": 4155,
      "Ġcontinu": 4156,
      "ĠShue": 4157,
      "Ġsongs": 4158,
      "Ġspeaks": 4159,
      "Ġforever": 4160,
      "Ġmagn": 4161,
      "Ġphotograp": 4162,
      "Ġnormal": 4163,
      "Ġresemb": 4164,
      "Ġconcerned": 4165,
      "ĠSchne": 4166,
      "Ġdollar": 4167,
      "ĠDespite": 4168,
      "Ġstruggle": 4169,
      "Ġimplaus": 4170,
      "However": 4171,
      "Ġdrugs": 4172,
      "ĠVanessa": 4173,
      "Ġdesperate": 4174,
      "Ġmassive": 4175,
      "Ġidentity": 4176,
      "Ġnegative": 4177,
      "Ġnonsense": 4178,
      "ĠNazi": 4179,
      "Ġbreath": 4180,
      "Ġultimately": 4181,
      "Ġvarious": 4182,
      "Ġweapon": 4183,
      "teresting": 4184,
      "vernment": 4185,
      "Ġrescue": 4186,
      "ĠFuqua": 4187,
      "ĠSharon": 4188,
      "Ġcateg": 4189,
      "ĠJapan": 4190,
      "inderella": 4191,
      "):": 4192,
      "200": 4193,
      "AL": 4194,
      "Ch": 4195,
      "EVER": 4196,
      "GH": 4197,
      "IE": 4198,
      "Pl": 4199,
      "UN": 4200,
      "Well": 4201,
      "iam": 4202,
      "mble": 4203,
      "natural": 4204,
      "piece": 4205,
      "ral": 4206,
      "ss": 4207,
      "she": 4208,
      "wor": 4209,
      "wford": 4210,
      "you": 4211,
      "yes": 4212,
      "Ġera": 4213,
      "inal": 4214,
      "inary": 4215,
      "reet": 4216,
      "Ġbur": 4217,
      "Ġbomb": 4218,
      "Ġbanned": 4219,
      "Ġmid": 4220,
      "Ġfat": 4221,
      "Ġfal": 4222,
      "Ġfund": 4223,
      "has": 4224,
      "itz": 4225,
      "Ġcas": 4226,
      "Ġcant": 4227,
      "Ġcause": 4228,
      "Ġcross": 4229,
      "enny": 4230,
      "ency": 4231,
      "orable": 4232,
      "oug": 4233,
      "Ġpal": 4234,
      "Ġpra": 4235,
      "Ġpers": 4236,
      "Ġdude": 4237,
      "Ġlay": 4238,
      "anish": 4239,
      "atives": 4240,
      "ĠIN": 4241,
      "Ġthrew": 4242,
      "Ġgross": 4243,
      "Ġgoof": 4244,
      "Ġnative": 4245,
      "lyn": 4246,
      "Ġhide": 4247,
      "Ġhint": 4248,
      "ĠThing": 4249,
      "ĠTwo": 4250,
      "Ġrepl": 4251,
      "Ġrelie": 4252,
      "Ġste": 4253,
      "Ġsteal": 4254,
      "raid": 4255,
      "imal": 4256,
      "idence": 4257,
      "add": 4258,
      "aded": 4259,
      "ett": 4260,
      "Ġancient": 4261,
      "ĠAc": 4262,
      "ĠAud": 4263,
      "Ġsem": 4264,
      "Ġaside": 4265,
      "rix": 4266,
      "hern": 4267,
      "ĠBill": 4268,
      "Ġscares": 4269,
      "Ġjunk": 4270,
      ".....": 4271,
      "ĠHawn": 4272,
      "ĠHaving": 4273,
      "ĠCH": 4274,
      "ĠCom": 4275,
      "ĠChan": 4276,
      "ĠCinderella": 4277,
      "Ġkick": 4278,
      "ĠWestern": 4279,
      "ĠMon": 4280,
      "ĠMic": 4281,
      "ĠMex": 4282,
      "ĠMiss": 4283,
      "Ġshout": 4284,
      "Ġsoap": 4285,
      "ify": 4286,
      "ĠDoug": 4287,
      "pper": 4288,
      "Ġcommer": 4289,
      "Ġlikely": 4290,
      "asts": 4291,
      "Ġrich": 4292,
      "Ġround": 4293,
      "telling": 4294,
      "ĠFred": 4295,
      "ĠLake": 4296,
      "ĠLester": 4297,
      "Ġmerely": 4298,
      "Ġconsp": 4299,
      "ĠJon": 4300,
      "ĠJew": 4301,
      "anda": 4302,
      "Ġunable": 4303,
      "Ġunique": 4304,
      "pty": 4305,
      "ĠREA": 4306,
      "Ġproves": 4307,
      "Ġproceed": 4308,
      "Ġfacial": 4309,
      "Then": 4310,
      "Ġwhatso": 4311,
      "Ġlog": 4312,
      "Ġclic": 4313,
      "Ġ12": 4314,
      "Ġ100": 4315,
      "Ġtend": 4316,
      "Ġteens": 4317,
      "intention": 4318,
      "ploy": 4319,
      "Ġpreview": 4320,
      "Ġblue": 4321,
      "Ġguilty": 4322,
      "Ġimmed": 4323,
      "ache": 4324,
      "Ġpartner": 4325,
      "ĠVideo": 4326,
      "ĠHell": 4327,
      "Ġrob": 4328,
      "Ġroad": 4329,
      "Ġyeah": 4330,
      "ĠUK": 4331,
      "Ġterror": 4332,
      "Ġincoherent": 4333,
      "Ġtalents": 4334,
      "Ġprinc": 4335,
      "Ġcontrived": 4336,
      "Ġbigger": 4337,
      "Ġolder": 4338,
      "Ġtravel": 4339,
      "Ġsimpl": 4340,
      "Ġproduce": 4341,
      "Ġoriginality": 4342,
      "Ġfinale": 4343,
      "Ġlonger": 4344,
      "azz": 4345,
      "Ġbuilt": 4346,
      "Ġcomedies": 4347,
      "Ġaccompl": 4348,
      "ivid": 4349,
      "Ġgrown": 4350,
      "Ġwalked": 4351,
      "Ġclever": 4352,
      "Ġfailure": 4353,
      "Ġlower": 4354,
      "Ġexplo": 4355,
      "Ġreviewer": 4356,
      "Ġgrab": 4357,
      "Ġsurely": 4358,
      "ĠTHIS": 4359,
      "Ġexciting": 4360,
      "Ġheads": 4361,
      "ording": 4362,
      "neyed": 4363,
      "Ġstandards": 4364,
      "ĠMany": 4365,
      "reaking": 4366,
      "Ġcuts": 4367,
      "Ġcutting": 4368,
      "Ġcrack": 4369,
      "Ġbecoming": 4370,
      "Ġrenting": 4371,
      "Ġuseless": 4372,
      "ological": 4373,
      "airs": 4374,
      "Ġcreated": 4375,
      "Ġpassed": 4376,
      "ĠMarie": 4377,
      "ĠMaria": 4378,
      "ĠEveryone": 4379,
      "Ġincludes": 4380,
      "Ġlighting": 4381,
      "Ġlocation": 4382,
      "Ġanimation": 4383,
      "Ġmarried": 4384,
      "ĠJackson": 4385,
      "Ġsucked": 4386,
      "ĠDavis": 4387,
      "Ġregret": 4388,
      "Ġtypes": 4389,
      "Ġopportun": 4390,
      "Ġprofession": 4391,
      "Ġcharm": 4392,
      "iki": 4393,
      "Ġconstru": 4394,
      "ĠCharles": 4395,
      "Ġcostume": 4396,
      "Ġuninsp": 4397,
      "Ġuninteresting": 4398,
      "ĠOverall": 4399,
      "Ġnarrative": 4400,
      "ĠWatching": 4401,
      "ebaum": 4402,
      "Ġerotic": 4403,
      "ĠShah": 4404,
      "ĠWilliam": 4405,
      "Ġtouch": 4406,
      "Ġearlier": 4407,
      "Ġaspects": 4408,
      "ĠAND": 4409,
      "Ġpleasure": 4410,
      "ĠIndian": 4411,
      "Ġhanging": 4412,
      "Ġprotagon": 4413,
      "ĠCrawford": 4414,
      "ĠDenise": 4415,
      "Ġprogress": 4416,
      "Ġhackneyed": 4417,
      "ĠSeriously": 4418,
      "Ġrespons": 4419,
      "Ġafraid": 4420,
      "Ġinformation": 4421,
      "Ġvirtually": 4422,
      "ĠCanadian": 4423,
      "Ġatrocious": 4424,
      "Ġvulgar": 4425,
      "Ġenviron": 4426,
      "Ġturtle": 4427,
      "Ġbodies": 4428,
      "Ġmelod": 4429,
      "ĠBranagh": 4430,
      "ĠJapanese": 4431,
      "ĠMexic": 4432,
      "Ġwhatsoever": 4433,
      "Ġenvironment": 4434,
      ",'": 4435,
      "AK": 4436,
      "By": 4437,
      "Bas": 4438,
      "HING": 4439,
      "Is": 4440,
      "aff": 4441,
      "big": 4442,
      "down": 4443,
      "fric": 4444,
      "horror": 4445,
      "kward": 4446,
      "lig": 4447,
      "ores": 4448,
      "oking": 4449,
      "por": 4450,
      "point": 4451,
      "rs": 4452,
      "uine": 4453,
      "vice": 4454,
      "wed": 4455,
      "ykes": 4456,
      "za": 4457,
      "Ġ)": 4458,
      "Ġtour": 4459,
      "Ġav": 4460,
      "hered": 4461,
      "Ġsne": 4462,
      "rem": 4463,
      "rees": 4464,
      "Ġwide": 4465,
      "Ġfate": 4466,
      "Ġfresh": 4467,
      "ndo": 4468,
      "itable": 4469,
      "itude": 4470,
      "inger": 4471,
      "Ġcow": 4472,
      "Ġcares": 4473,
      "oring": 4474,
      "oroughly": 4475,
      "lli": 4476,
      "Ġpack": 4477,
      "Ġpity": 4478,
      "Ġdry": 4479,
      "Ġdorm": 4480,
      "Ġdouble": 4481,
      "edy": 4482,
      "Ġluck": 4483,
      "Ġliter": 4484,
      "ancy": 4485,
      "ashy": 4486,
      "omach": 4487,
      "Ġgig": 4488,
      "Ġgru": 4489,
      "Ġgym": 4490,
      "icate": 4491,
      "icide": 4492,
      "lead": 4493,
      "otions": 4494,
      "uty": 4495,
      "Ġhur": 4496,
      "Ġhig": 4497,
      "although": 4498,
      "Ġham": 4499,
      "ilst": 4500,
      "Ġrefe": 4501,
      "ows": 4502,
      "Ġstun": 4503,
      "Ġstate": 4504,
      "Ġstomach": 4505,
      "rad": 4506,
      "chi": 4507,
      "Ġforce": 4508,
      "Ġur": 4509,
      "ĠAgain": 4510,
      "Ġsection": 4511,
      "ĠSl": 4512,
      "ĠSpe": 4513,
      "ĠSykes": 4514,
      "Ġasha": 4515,
      "irt": 4516,
      "urity": 4517,
      "illed": 4518,
      "Ġju": 4519,
      "Ġjumps": 4520,
      "ĠHor": 4521,
      "ĠCr": 4522,
      "ĠCat": 4523,
      "ĠCome": 4524,
      "ĠCel": 4525,
      "ĠCast": 4526,
      "Ġkiss": 4527,
      "ĠWall": 4528,
      "ĠWhere": 4529,
      "ĠMag": 4530,
      "ĠMike": 4531,
      "unig": 4532,
      "Ġsole": 4533,
      "Ġsoph": 4534,
      "essor": 4535,
      "ĠDu": 4536,
      "ĠDri": 4537,
      "aud": 4538,
      "aught": 4539,
      "Ġcomfort": 4540,
      "ushing": 4541,
      "Ġvague": 4542,
      "Ġvoices": 4543,
      "gend": 4544,
      "oluted": 4545,
      "ĠPol": 4546,
      "ĠLa": 4547,
      "racters": 4548,
      "ĠJill": 4549,
      "Ġanymore": 4550,
      "Ġuniverse": 4551,
      "ĠRay": 4552,
      "ĠRee": 4553,
      "Ġgovernment": 4554,
      "Ġprocess": 4555,
      "ĠGO": 4556,
      "Ġfell": 4557,
      "Ġthank": 4558,
      "Ġwhenever": 4559,
      "Ġoveract": 4560,
      "abl": 4561,
      "abor": 4562,
      "plot": 4563,
      "Ġoffice": 4564,
      "Ġmakeup": 4565,
      "Ġblat": 4566,
      "Ġbland": 4567,
      "Ġtwenty": 4568,
      "ached": 4569,
      "Ġknowledge": 4570,
      "Ġagent": 4571,
      "asses": 4572,
      "iance": 4573,
      "ups": 4574,
      "Ġspace": 4575,
      "Ġspirit": 4576,
      "Ġwanting": 4577,
      "pected": 4578,
      "Ġprim": 4579,
      "Ġobject": 4580,
      "there": 4581,
      "Ġfactor": 4582,
      "Ġtragic": 4583,
      "Ġemotions": 4584,
      "Ġsurvi": 4585,
      "Ġcomplex": 4586,
      "ectual": 4587,
      "Ġcompan": 4588,
      "Ġcompare": 4589,
      "rences": 4590,
      "Ġputs": 4591,
      "eryl": 4592,
      "Ġgenuine": 4593,
      "onsider": 4594,
      "ĠAsian": 4595,
      "ocol": 4596,
      "ival": 4597,
      "Ġexpectations": 4598,
      "Ġlackl": 4599,
      "Ġcalling": 4600,
      "ĠBlank": 4601,
      "Ġconfront": 4602,
      "ĠBefore": 4603,
      "Ġboard": 4604,
      "Ġdeaths": 4605,
      "ĠZunig": 4606,
      "Ġstands": 4607,
      "luding": 4608,
      "ĠChronicles": 4609,
      "ĠFrank": 4610,
      "Ġconvoluted": 4611,
      "Ġlisted": 4612,
      "Ġbeauty": 4613,
      "Ġreputation": 4614,
      "Ġdelight": 4615,
      "Ġphone": 4616,
      "Ġmatters": 4617,
      "Ġdistract": 4618,
      "Ġteenagers": 4619,
      "Ġdriving": 4620,
      "Ġhopes": 4621,
      "ĠNOTHING": 4622,
      "LLY": 4623,
      "Ġoppos": 4624,
      "Ġoppress": 4625,
      "Ġinvisibility": 4626,
      "Ġexplained": 4627,
      "Ġangry": 4628,
      "Ġdreams": 4629,
      "Ġthrowing": 4630,
      "Ġbuilding": 4631,
      "Ġdescrib": 4632,
      "OOD": 4633,
      "ĠWorst": 4634,
      "Ġidiot": 4635,
      "Ġidiotic": 4636,
      "Ġforgettable": 4637,
      "Ġspoilers": 4638,
      "Ġscreaming": 4639,
      "Ġcentral": 4640,
      "Ġequally": 4641,
      "Ġnarration": 4642,
      "Ġcapital": 4643,
      "Ġpurely": 4644,
      "Ġexecutive": 4645,
      "Ġvehic": 4646,
      "Ġknife": 4647,
      "Ġsolid": 4648,
      "Ġarrives": 4649,
      "Ġescapes": 4650,
      "Ġdisgusting": 4651,
      "Ġmarket": 4652,
      "Ġcruel": 4653,
      "Ġmasterpiece": 4654,
      "Ġdubbing": 4655,
      "Ġfolks": 4656,
      "econdly": 4657,
      "writer": 4658,
      "Ġjourney": 4659,
      "ĠRedgra": 4660,
      "Ġinitial": 4661,
      "Ġgags": 4662,
      "Ġunrealistic": 4663,
      "ĠNicholson": 4664,
      "watchable": 4665,
      "Ġdemonstr": 4666,
      "ĠSmith": 4667,
      "ĠNelson": 4668,
      "Ġturkey": 4669,
      "Ġmulti": 4670,
      "Ġirritating": 4671,
      "ĠSchneebaum": 4672,
      "Ġimplausible": 4673,
      "Ġcategory": 4674,
      "Ġfalse": 4675,
      "Ġimmedi": 4676,
      "ĠZuniga": 4677,
      "!).": 4678,
      "Any": 4679,
      "CH": 4680,
      "HS": 4681,
      "IR": 4682,
      "LE": 4683,
      "MNT": 4684,
      "Prom": 4685,
      "Paris": 4686,
      "TV": 4687,
      "aj": 4688,
      "core": 4689,
      "eg": 4690,
      "ek": 4691,
      "film": 4692,
      "father": 4693,
      "gos": 4694,
      "life": 4695,
      "mat": 4696,
      "mates": 4697,
      "oons": 4698,
      "part": 4699,
      "rary": 4700,
      "suck": 4701,
      "upp": 4702,
      "under": 4703,
      "ya": 4704,
      "Ġ0": 4705,
      "Ġtough": 4706,
      "Ġtack": 4707,
      "Ġtarget": 4708,
      "Ġaim": 4709,
      "Ġachie": 4710,
      "hent": 4711,
      "inating": 4712,
      "Ġsed": 4713,
      "Ġsun": 4714,
      "Ġsite": 4715,
      "Ġwise": 4716,
      "Ġwild": 4717,
      "Ġoh": 4718,
      "ision": 4719,
      "Ġbal": 4720,
      "Ġboo": 4721,
      "Ġbattle": 4722,
      "Ġbesides": 4723,
      "Ġmal": 4724,
      "Ġmart": 4725,
      "Ġmild": 4726,
      "ndred": 4727,
      "hal": 4728,
      "hard": 4729,
      "itary": 4730,
      "itles": 4731,
      "Ġcards": 4732,
      "eness": 4733,
      "enry": 4734,
      "onna": 4735,
      "Ġpacing": 4736,
      "Ġpieces": 4737,
      "Ġdin": 4738,
      "Ġled": 4739,
      "Ġloss": 4740,
      "atory": 4741,
      "Ġ/>(": 4742,
      "Ġthirty": 4743,
      "Ġthoroughly": 4744,
      "Ġgap": 4745,
      "Ġgrap": 4746,
      "icious": 4747,
      "icated": 4748,
      "icism": 4749,
      "oting": 4750,
      "Ġemer": 4751,
      "Ġnar": 4752,
      "Ġnomin": 4753,
      "Ġhits": 4754,
      "ĠThan": 4755,
      "ĠTMNT": 4756,
      "Ġreaction": 4757,
      "Ġreceived": 4758,
      "Ġthats": 4759,
      "owers": 4760,
      "see": 4761,
      "Ġwasting": 4762,
      "Ġmoved": 4763,
      "ady": 4764,
      "adly": 4765,
      "ademy": 4766,
      "etch": 4767,
      "etime": 4768,
      "ays": 4769,
      "Ġantic": 4770,
      "kend": 4771,
      "ĠAce": 4772,
      "ĠAfric": 4773,
      "Ġseg": 4774,
      "Ġseven": 4775,
      "ĠSex": 4776,
      "ĠSPOILERS": 4777,
      "Ġasking": 4778,
      "Ġasks": 4779,
      "ries": 4780,
      "ament": 4781,
      "Ġnoted": 4782,
      "Ġnotable": 4783,
      "Ġnoticed": 4784,
      "ĠBilly": 4785,
      "ĠBAD": 4786,
      "Ġlift": 4787,
      "urate": 4788,
      "Ġwearing": 4789,
      "Ġscience": 4790,
      "Ġjud": 4791,
      "ĠHal": 4792,
      "ĠHum": 4793,
      "ĠHaw": 4794,
      "ĠColl": 4795,
      "ĠWay": 4796,
      "ĠMoon": 4797,
      "ĠMeryl": 4798,
      "Ġdoctor": 4799,
      "ĠDance": 4800,
      "Ġplanet": 4801,
      "Ġchase": 4802,
      "Ġalive": 4803,
      "oph": 4804,
      "opher": 4805,
      "Ġvan": 4806,
      "ĠFOR": 4807,
      "ĠFalk": 4808,
      "ĠFinally": 4809,
      "ĠPal": 4810,
      "ĠParis": 4811,
      "Ġconc": 4812,
      "ĠJason": 4813,
      "ooked": 4814,
      "Ġunre": 4815,
      "Ġunknow": 4816,
      "Ġunintention": 4817,
      "Ġunwatchable": 4818,
      "ĠRam": 4819,
      "ĠRey": 4820,
      "ĠRiver": 4821,
      "ĠRuss": 4822,
      "Ġgold": 4823,
      "ĠEdd": 4824,
      "ĠEnter": 4825,
      "Ġfaces": 4826,
      "ĠGl": 4827,
      "ĠGene": 4828,
      "ĠGrant": 4829,
      "Ġmanipul": 4830,
      "Ġclub": 4831,
      "itty": 4832,
      "Ġ18": 4833,
      "thy": 4834,
      "thology": 4835,
      "ĠKen": 4836,
      "ĠKirk": 4837,
      "Ġkillings": 4838,
      "Ġplots": 4839,
      "ĠYour": 4840,
      "ĠYeah": 4841,
      "Ġdisaster": 4842,
      "Ġdisbelie": 4843,
      "ĠVHS": 4844,
      "Ġroll": 4845,
      "Ġambig": 4846,
      "omething": 4847,
      "Ġspoof": 4848,
      "Ġchoose": 4849,
      "Ġslap": 4850,
      "Ġspeech": 4851,
      "Ġserve": 4852,
      "Ġcontent": 4853,
      "Ġimpact": 4854,
      "ighb": 4855,
      "Ġtraged": 4856,
      "Ġawesome": 4857,
      "Ġawkward": 4858,
      "Ġemploy": 4859,
      "Ġfarmer": 4860,
      "Ġresol": 4861,
      "Ġaccents": 4862,
      "Ġ196": 4863,
      "Ġ198": 4864,
      "ivil": 4865,
      "ivity": 4866,
      "Ġhumour": 4867,
      "Ġhumans": 4868,
      "Ġsupposedly": 4869,
      "ĠJoe": 4870,
      "ĠScha": 4871,
      "Ġinsist": 4872,
      "Ġsitcom": 4873,
      "ĠSpanish": 4874,
      "Ġedited": 4875,
      "Ġskills": 4876,
      "Ġcaric": 4877,
      "Ġsinger": 4878,
      "Ġconvince": 4879,
      "screen": 4880,
      "standing": 4881,
      "Ġimpressed": 4882,
      "Ġsyn": 4883,
      "Ġmatch": 4884,
      "Ġpresence": 4885,
      "Ġstrict": 4886,
      "Ġhundred": 4887,
      "ĠClark": 4888,
      "Ġdeveloped": 4889,
      "Ġinvolves": 4890,
      "Ġsatire": 4891,
      "Ġelement": 4892,
      "Ġcosts": 4893,
      "Ġdrivel": 4894,
      "Ġbrave": 4895,
      "Ġefforts": 4896,
      "Ġindivid": 4897,
      "aaaa": 4898,
      "ĠEdward": 4899,
      "ĠOnly": 4900,
      "ĠOnce": 4901,
      "Ġdaughters": 4902,
      "Ġregard": 4903,
      "Ġdeserved": 4904,
      "Ġoccur": 4905,
      "Ġmoral": 4906,
      "Ġmorning": 4907,
      "!!!!!!!!": 4908,
      "Ġtechnical": 4909,
      "Ġtechnology": 4910,
      "Ġsignific": 4911,
      "Ġruin": 4912,
      "Ġprofessor": 4913,
      "Ġcharming": 4914,
      "Ġdepict": 4915,
      "Ġspends": 4916,
      "Ġbrothers": 4917,
      "Ġinfl": 4918,
      "ĠRichards": 4919,
      "Ġfantastic": 4920,
      "ĠAnyone": 4921,
      "ĠAnyway": 4922,
      "ĠPlus": 4923,
      "ĠBrook": 4924,
      "Ġdevice": 4925,
      "Ġshocking": 4926,
      "ĠOverboard": 4927,
      "Ġphotography": 4928,
      "ĠWatch": 4929,
      "Ġprior": 4930,
      "Ġloser": 4931,
      "Ġsuffering": 4932,
      "Ġbelow": 4933,
      "Ġbelong": 4934,
      "Ġ/>---": 4935,
      "roadway": 4936,
      "Ġkidnapped": 4937,
      "Ġmiles": 4938,
      "Ġknock": 4939,
      "Ġprovide": 4940,
      "ĠRosarios": 4941,
      "Ġassume": 4942,
      "Ġsubtle": 4943,
      "urally": 4944,
      "Ġauthent": 4945,
      "ĠTraci": 4946,
      "ĠCGI": 4947,
      "Ġconnect": 4948,
      "Ġaffair": 4949,
      "ermott": 4950,
      "Ġdetails": 4951,
      "Another": 4952,
      "ĠWorlds": 4953,
      "Ġtunnel": 4954,
      "Ġsummary": 4955,
      "ĠJeff": 4956,
      "Ġlatter": 4957,
      "ĠAngel": 4958,
      "Ġrepeatedly": 4959,
      "Ġpractically": 4960,
      "Ġinnoc": 4961,
      "Ġobsessed": 4962,
      "ĠApparently": 4963,
      "Ġroutine": 4964,
      "Ġremoved": 4965,
      "Ġincompet": 4966,
      "ĠEuropean": 4967,
      "ĠIrish": 4968,
      "ĠBogdan": 4969,
      "Ġintrigu": 4970,
      "Ġunderstood": 4971,
      "Ġadventure": 4972,
      "GHT": 4973,
      "ĠAudrey": 4974,
      "ĠDouglas": 4975,
      "Ġcommercial": 4976,
      "Ġmelodramatic": 4977,
      "Ġgruesome": 4978,
      "Ġashamed": 4979,
      "ĠRedgrave": 4980,
      "Ġimmediately": 4981,
      "Ġtragedy": 4982,
      "Ġauthentic": 4983,
      "ĠBogdanovich": 4984,
      "17": 4985,
      "?),": 4986,
      "AP": 4987,
      "At": 4988,
      "Ellen": 4989,
      "OV": 4990,
      "SPOILERS": 4991,
      "We": 4992,
      "While": 4993,
      "aly": 4994,
      "aven": 4995,
      "bl": 4996,
      "cock": 4997,
      "director": 4998,
      "ease": 4999,
      "gn": 5000,
      "hold": 5001,
      "iar": 5002,
      "ium": 5003,
      "long": 5004,
      "min": 5005,
      "oh": 5006,
      "opped": 5007,
      "pent": 5008,
      "produ": 5009,
      "rist": 5010,
      "rough": 5011,
      "rich": 5012,
      "some": 5013,
      "ship": 5014,
      "val": 5015,
      "vent": 5016,
      "via": 5017,
      "war": 5018,
      "ware": 5019,
      "yran": 5020,
      "ylan": 5021,
      "Â´": 5022,
      "Ġ***": 5023,
      "Ġtas": 5024,
      "Ġtem": 5025,
      "Ġtame": 5026,
      "Ġtires": 5027,
      "Ġast": 5028,
      "inative": 5029,
      "Ġsour": 5030,
      "reas": 5031,
      "Ġwow": 5032,
      "Ġbre": 5033,
      "Ġbow": 5034,
      "Ġmember": 5035,
      "Ġfreak": 5036,
      "hay": 5037,
      "hand": 5038,
      "Ġcared": 5039,
      "Ġcurious": 5040,
      "orian": 5041,
      "Ġpit": 5042,
      "Ġpig": 5043,
      "Ġpath": 5044,
      "Ġder": 5045,
      "Ġded": 5046,
      "Ġdire": 5047,
      "Ġdrop": 5048,
      "edger": 5049,
      "Ġlink": 5050,
      "Ġleng": 5051,
      "Ġinacc": 5052,
      "ante": 5053,
      "asp": 5054,
      "ators": 5055,
      "athetic": 5056,
      "Ġthreat": 5057,
      "Ġgang": 5058,
      "Ġgorge": 5059,
      "Ġgonna": 5060,
      "Ġeating": 5061,
      "Ġearn": 5062,
      "Ġnude": 5063,
      "Ġnatural": 5064,
      "star": 5065,
      "alia": 5066,
      "ĠTor": 5067,
      "Ġmob": 5068,
      "Ġmood": 5069,
      "iles": 5070,
      "iled": 5071,
      "Ġstil": 5072,
      "Ġyell": 5073,
      "ĠAks": 5074,
      "ĠAdd": 5075,
      "ĠTheir": 5076,
      "Ġsearch": 5077,
      "cel": 5078,
      "ĠBet": 5079,
      "ĠBall": 5080,
      "ĠBel": 5081,
      "ĠBroadway": 5082,
      "Ġarea": 5083,
      "Ġjeal": 5084,
      "ĠHigh": 5085,
      "ĠHorror": 5086,
      "ĠHappy": 5087,
      "ĠCap": 5088,
      "ĠCage": 5089,
      "ĠCarl": 5090,
      "ĠCooper": 5091,
      "ĠWOR": 5092,
      "ĠWAY": 5093,
      "ĠMary": 5094,
      "ĠMole": 5095,
      "Ġsho": 5096,
      "outhern": 5097,
      "Ġdogs": 5098,
      "ĠDr": 5099,
      "ĠDam": 5100,
      "ĠDevil": 5101,
      "ĠDaph": 5102,
      "Ġplaces": 5103,
      "Ġchallen": 5104,
      "arted": 5105,
      "usic": 5106,
      "aints": 5107,
      "Ġride": 5108,
      "Ġdear": 5109,
      "ĠNast": 5110,
      "ĠNick": 5111,
      "ĠNiven": 5112,
      "ĠFish": 5113,
      "ĠFriday": 5114,
      "ĠPR": 5115,
      "ĠLittle": 5116,
      "ĠJed": 5117,
      "ĠJan": 5118,
      "Ġunp": 5119,
      "ivered": 5120,
      "umer": 5121,
      "Ġhasn": 5122,
      "ĠRom": 5123,
      "ĠReturn": 5124,
      "ĠOff": 5125,
      "Ġfare": 5126,
      "aken": 5127,
      "ĠGirl": 5128,
      "Ġtrite": 5129,
      "Ġlover": 5130,
      "Ġlovers": 5131,
      "Ġlocked": 5132,
      "Ġoverrated": 5133,
      "arden": 5134,
      "ittany": 5135,
      "Ġshower": 5136,
      "ĠKiller": 5137,
      "Ġblank": 5138,
      "Ġtwice": 5139,
      "Ġdisappe": 5140,
      "acy": 5141,
      "Ġhorrific": 5142,
      "ĠViv": 5143,
      "Ġfunn": 5144,
      "Ġadvert": 5145,
      "Ġchoo": 5146,
      "ization": 5147,
      "Ġshouldn": 5148,
      "ĠUp": 5149,
      "ĠUs": 5150,
      "Ġremem": 5151,
      "Ġpointed": 5152,
      "---": 5153,
      "rank": 5154,
      "Ġincons": 5155,
      "Ġenter": 5156,
      "Ġprime": 5157,
      "Ġperform": 5158,
      "ĠStreet": 5159,
      "aughter": 5160,
      "Ġcontains": 5161,
      "Ġoblig": 5162,
      "Ġfacts": 5163,
      "Ġdrag": 5164,
      "Ġtrial": 5165,
      "Ġtripe": 5166,
      "Ġempty": 5167,
      "Ġbelieved": 5168,
      "ĠAlbert": 5169,
      "Ġappropriate": 5170,
      "ĠChong": 5171,
      "ĠAsh": 5172,
      "Ġ197": 5173,
      "Ġnews": 5174,
      "Ġextras": 5175,
      "Ġsenseless": 5176,
      "ĠBlair": 5177,
      "Ġworthless": 5178,
      "Ġgrat": 5179,
      "Ġhandled": 5180,
      "arner": 5181,
      "Ġconfess": 5182,
      "Ġcovered": 5183,
      "Ġexplored": 5184,
      "Ġ45": 5185,
      "Ġinsult": 5186,
      "Ġgrave": 5187,
      "Ġexcit": 5188,
      "Ġcring": 5189,
      "ĠZero": 5190,
      "ĠManiac": 5191,
      "Ġpainting": 5192,
      "Ġexamples": 5193,
      "Ġaddition": 5194,
      "Ġsky": 5195,
      "Ġskip": 5196,
      "Ġflicks": 5197,
      "Ġfemin": 5198,
      "Ġdelivered": 5199,
      "Ġheroes": 5200,
      "Ġpresum": 5201,
      "issance": 5202,
      "Ġpromise": 5203,
      "Ġteenager": 5204,
      "onestly": 5205,
      "Ġcollect": 5206,
      "Ġincluded": 5207,
      "Ġportrays": 5208,
      "Ġdrive": 5209,
      "Ġlocations": 5210,
      "Ġanimated": 5211,
      "Ġmarry": 5212,
      "idden": 5213,
      "Ġslowly": 5214,
      "Ġripped": 5215,
      "ĠDeath": 5216,
      "Ġhoped": 5217,
      "ONE": 5218,
      "Ġguns": 5219,
      "ĠSteven": 5220,
      "Ġdealing": 5221,
      "Ġunfold": 5222,
      "Ġunbelievably": 5223,
      "Ġlevels": 5224,
      "Ġwoods": 5225,
      "Ġmotiv": 5226,
      "Ġtreatment": 5227,
      "Ġconstantly": 5228,
      "Ġpreviously": 5229,
      "Ġfigured": 5230,
      "ĠPlanet": 5231,
      "Ġangles": 5232,
      "Ġperfectly": 5233,
      "Ġspeaking": 5234,
      "Ġintellectual": 5235,
      "Ġchanges": 5236,
      "Ġdevil": 5237,
      "ĠGoing": 5238,
      "Ġpolitics": 5239,
      "Ġweekend": 5240,
      "Ġmagic": 5241,
      "Ġcontrovers": 5242,
      "Ġidiots": 5243,
      "Ġjumped": 5244,
      "Ġencou": 5245,
      "Ġmemory": 5246,
      "Ġindepend": 5247,
      "ĠDays": 5248,
      "Ġcaptured": 5249,
      "ĠQu": 5250,
      "Ġdollars": 5251,
      "Ġkidnapp": 5252,
      "Ġintelligence": 5253,
      "ĠBrad": 5254,
      "Ġescaped": 5255,
      "Ġsubtitles": 5256,
      "rrrr": 5257,
      "Ġdrug": 5258,
      "Ġapproach": 5259,
      "Ġdubbed": 5260,
      "ĠBobby": 5261,
      "ĠLucille": 5262,
      "Ġfascinating": 5263,
      "Ġintentions": 5264,
      "Ġsubstance": 5265,
      "Ġcommunity": 5266,
      "Ġscientist": 5267,
      "written": 5268,
      "nolds": 5269,
      "Ġmental": 5270,
      "ĠCampbell": 5271,
      "Ġdozen": 5272,
      "Ġfrightening": 5273,
      "Ġunexpected": 5274,
      "Ġdragged": 5275,
      "Unfortunately": 5276,
      "ĠEva": 5277,
      "Ġstructure": 5278,
      "ĠMcDermott": 5279,
      "ĠSometimes": 5280,
      "ĠRobin": 5281,
      "Ġrelief": 5282,
      "Ġconspira": 5283,
      "Ġuninspired": 5284,
      "Ġprotagonist": 5285,
      "Ġresponsible": 5286,
      "Ġgymn": 5287,
      "ĠReeves": 5288,
      "Ġlackluster": 5289,
      "Ġvehicle": 5290,
      "Ġanticip": 5291,
      "Ġdisbelief": 5292,
      "Ġinflu": 5293,
      "ĠAkshay": 5294,
      "ĠDaphne": 5295,
      "ĠVivah": 5296,
      "!),": 5297,
      "\"?": 5298,
      ");": 5299,
      "20": 5300,
      "?).": 5301,
      "Be": 5302,
      "Bl": 5303,
      "De": 5304,
      "GE": 5305,
      "Hollow": 5306,
      "Hey": 5307,
      "Happy": 5308,
      "IGHT": 5309,
      "Of": 5310,
      "PP": 5311,
      "UR": 5312,
      "Valentine": 5313,
      "aur": 5314,
      "aves": 5315,
      "cies": 5316,
      "cist": 5317,
      "check": 5318,
      "field": 5319,
      "gers": 5320,
      "good": 5321,
      "hi": 5322,
      "hol": 5323,
      "iator": 5324,
      "jat": 5325,
      "lot": 5326,
      "lance": 5327,
      "mar": 5328,
      "mate": 5329,
      "mod": 5330,
      "nan": 5331,
      "nie": 5332,
      "oly": 5333,
      "oppy": 5334,
      "put": 5335,
      "pse": 5336,
      "rie": 5337,
      "rick": 5338,
      "rue": 5339,
      "rors": 5340,
      "something": 5341,
      "tle": 5342,
      "tun": 5343,
      "uce": 5344,
      "vas": 5345,
      "vest": 5346,
      "wl": 5347,
      "win": 5348,
      "yc": 5349,
      "Ġ>": 5350,
      "Ġic": 5351,
      "Ġ!!": 5352,
      "Ġtiny": 5353,
      "het": 5354,
      "hearted": 5355,
      "ini": 5356,
      "inet": 5357,
      "Ġspect": 5358,
      "reck": 5359,
      "Ġwann": 5360,
      "Ġwishing": 5361,
      "isation": 5362,
      "Ġbro": 5363,
      "Ġbore": 5364,
      "Ġmine": 5365,
      "Ġmount": 5366,
      "Ġfly": 5367,
      "Ġfest": 5368,
      "Ġfits": 5369,
      "itute": 5370,
      "ingu": 5371,
      "Ġcrow": 5372,
      "Ġcattle": 5373,
      "Ġcode": 5374,
      "oric": 5375,
      "orig": 5376,
      "orious": 5377,
      "onse": 5378,
      "lls": 5379,
      "Ġpse": 5380,
      "Ġpad": 5381,
      "Ġpowers": 5382,
      "Ġdiv": 5383,
      "Ġdimensional": 5384,
      "eds": 5385,
      "Ġlying": 5386,
      "anic": 5387,
      "anks": 5388,
      "ĠIm": 5389,
      "arable": 5390,
      "arks": 5391,
      "ario": 5392,
      "Ġthus": 5393,
      "Ġego": 5394,
      "story": 5395,
      "stick": 5396,
      "Ġhyp": 5397,
      "Ġhole": 5398,
      "vement": 5399,
      "owney": 5400,
      "Ġhey": 5401,
      "Ġhearing": 5402,
      "Ġsty": 5403,
      "Ġstal": 5404,
      "Ġstates": 5405,
      "imate": 5406,
      "ioned": 5407,
      "ayl": 5408,
      "chy": 5409,
      "ĠAM": 5410,
      "ĠSO": 5411,
      "ĠSal": 5412,
      "ĠShow": 5413,
      "ĠSunny": 5414,
      "ĠSadly": 5415,
      "irm": 5416,
      "irror": 5417,
      "roker": 5418,
      "aming": 5419,
      "amily": 5420,
      "amlet": 5421,
      "ĠBu": 5422,
      "ĠBur": 5423,
      "ĠBack": 5424,
      "ĠBros": 5425,
      "ĠBrian": 5426,
      "ĠBoth": 5427,
      "urch": 5428,
      "terday": 5429,
      "Ġscar": 5430,
      "peare": 5431,
      "pending": 5432,
      "ĠHE": 5433,
      "ĠHenry": 5434,
      "ĠCus": 5435,
      "ĠWr": 5436,
      "ĠWil": 5437,
      "ĠWild": 5438,
      "ĠWirth": 5439,
      "ĠWarner": 5440,
      "ĠMin": 5441,
      "ĠMother": 5442,
      "ĠMOV": 5443,
      "emonic": 5444,
      "ules": 5445,
      "ifully": 5446,
      "ĠDra": 5447,
      "ĠDick": 5448,
      "ĠDowney": 5449,
      "Ġfrank": 5450,
      "Ġplaced": 5451,
      "Ġchasing": 5452,
      "Ġvac": 5453,
      "Ġvia": 5454,
      "Ġrough": 5455,
      "Ġrans": 5456,
      "Ġdefe": 5457,
      "ĠFar": 5458,
      "ĠPL": 5459,
      "ĠPam": 5460,
      "ĠPres": 5461,
      "ĠLI": 5462,
      "ĠLou": 5463,
      "ĠLat": 5464,
      "ĠLead": 5465,
      "ĠLev": 5466,
      "ĠLena": 5467,
      "ĠLedger": 5468,
      "ĠJud": 5469,
      "osity": 5470,
      "Ġnecessary": 5471,
      "Ġunbe": 5472,
      "Ġunfortun": 5473,
      "orting": 5474,
      "orted": 5475,
      "ests": 5476,
      "ĠRus": 5477,
      "ĠRoy": 5478,
      "igley": 5479,
      "Ġwatchable": 5480,
      "Ġups": 5481,
      "ĠEr": 5482,
      "ĠGen": 5483,
      "ights": 5484,
      "Ġmanage": 5485,
      "Ġtrick": 5486,
      "Ġthanks": 5487,
      "Ġoverdone": 5488,
      "Ġclunk": 5489,
      "orey": 5490,
      "Ġintense": 5491,
      "ods": 5492,
      "ĠKe": 5493,
      "Ġpreach": 5494,
      "Ġprefer": 5495,
      "Ġpregn": 5496,
      "Ġguilt": 5497,
      "achel": 5498,
      "Ġquiet": 5499,
      "ĠVera": 5500,
      "ĠAndie": 5501,
      "Ġspots": 5502,
      "Ġchosen": 5503,
      "Ġminimal": 5504,
      "Ġrad": 5505,
      "Ġramp": 5506,
      "kespeare": 5507,
      "Ġremaining": 5508,
      "Ġterrific": 5509,
      "rance": 5510,
      "Ġdecades": 5511,
      "Ġenth": 5512,
      "Ġcastle": 5513,
      "Ġprice": 5514,
      "ĠStill": 5515,
      "ĠStreep": 5516,
      "Ġcontem": 5517,
      "Ġobsc": 5518,
      "Ġscripts": 5519,
      "Ġdownhill": 5520,
      "Ġgiant": 5521,
      "Ġgotten": 5522,
      "Ġproduct": 5523,
      "Ġturning": 5524,
      "Ġstupidity": 5525,
      "Ġbuff": 5526,
      "ivable": 5527,
      "Ġsmile": 5528,
      "Ġshadow": 5529,
      "hens": 5530,
      "Ġdialogs": 5531,
      "Ġready": 5532,
      "ERE": 5533,
      "Ġrelig": 5534,
      "Ġlacked": 5535,
      "Ġworthy": 5536,
      "ĠTimothy": 5537,
      "including": 5538,
      "Ġpersonality": 5539,
      "Ġgrace": 5540,
      "ĠTHAT": 5541,
      "ĠZombie": 5542,
      "Ġmonths": 5543,
      "ĠMann": 5544,
      "Ġsorts": 5545,
      "ĠUnless": 5546,
      "Ġannoyed": 5547,
      "ovies": 5548,
      "ĠChris": 5549,
      "Ġsurprises": 5550,
      "Ġentertained": 5551,
      "Ġreporter": 5552,
      "Ġdelivers": 5553,
      "Ġassass": 5554,
      "Ġimages": 5555,
      "Ġimagination": 5556,
      "Ġcreatures": 5557,
      "ĠMarl": 5558,
      "ĠLugos": 5559,
      "ottom": 5560,
      "Ġexperiment": 5561,
      "Ġinclude": 5562,
      "ĠChristopher": 5563,
      "Ġuncom": 5564,
      "ILD": 5565,
      "ORE": 5566,
      "eyed": 5567,
      "Ġmarriage": 5568,
      "ĠÂħ": 5569,
      "cessarily": 5570,
      "Ġdemand": 5571,
      "Ġfavour": 5572,
      "ĠEdison": 5573,
      "Ġregular": 5574,
      "Ġvisit": 5575,
      "Ġiron": 5576,
      "Star": 5577,
      "Ġbreaks": 5578,
      "LLOW": 5579,
      "shot": 5580,
      "ynch": 5581,
      "Ġmotor": 5582,
      "Ġdepartment": 5583,
      "Ġprevent": 5584,
      "Ġallowing": 5585,
      "Ġstronger": 5586,
      "Ġsentiment": 5587,
      "Ġpulled": 5588,
      "Ġbrilliance": 5589,
      "Ġcauses": 5590,
      "ĠSimba": 5591,
      "ĠMcC": 5592,
      "Ġembarrassed": 5593,
      "Ġstereotypical": 5594,
      "Ġmemorable": 5595,
      "ĠCarpent": 5596,
      "Ġscreams": 5597,
      "Ġcentury": 5598,
      "OME": 5599,
      "Ġcapture": 5600,
      "Ġrequire": 5601,
      "ĠWalter": 5602,
      "Ġignor": 5603,
      "Ġcritics": 5604,
      "Ġclaims": 5605,
      "Ġgladiator": 5606,
      "Ġstruggling": 5607,
      "ĠLovely": 5608,
      "?!?!": 5609,
      "Ġlimited": 5610,
      "ĠANY": 5611,
      "Ġtheatre": 5612,
      "Ġpleasant": 5613,
      "Ġcombination": 5614,
      "boys": 5615,
      "Ġrecognize": 5616,
      "Ġcampy": 5617,
      "Ġsuspects": 5618,
      "ĠBerlin": 5619,
      "Ġdiscovered": 5620,
      "Ġoccasionally": 5621,
      "Ġconflicts": 5622,
      "Also": 5623,
      "Ġflaws": 5624,
      "Ġanswer": 5625,
      "Ġcompelled": 5626,
      "Ġestabl": 5627,
      "Ġmodel": 5628,
      "Ġbucks": 5629,
      "Ġbroadcast": 5630,
      "Despite": 5631,
      "ĠLargo": 5632,
      "ĠUnderground": 5633,
      "Ġsurrounded": 5634,
      "levant": 5635,
      "Ġsacrific": 5636,
      "Ġchoreography": 5637,
      "Ġflashback": 5638,
      "Ġsurvive": 5639,
      "ĠAcademy": 5640,
      "Ġlogical": 5641,
      "Ġsimplistic": 5642,
      "Ġopportunity": 5643,
      "ĠMexico": 5644,
      "AKE": 5645,
      "Ġhigher": 5646,
      "Ġopposite": 5647,
      "Ġdescribed": 5648,
      "ĠReynolds": 5649,
      "ĠEddie": 5650,
      "ĠEnterprise": 5651,
      "Ġtiresome": 5652,
      "Ġbreasts": 5653,
      "Ġexcitement": 5654,
      "Ġpseud": 5655,
      "ĠCusack": 5656,
      "Ġfrankly": 5657,
      "Ġransom": 5658,
      "Ġunfortunate": 5659,
      "ĠLugosi": 5660,
      "\").": 5661,
      "'.<": 5662,
      "Act": 5663,
      "BS": 5664,
      "Brow": 5665,
      "Every": 5666,
      "From": 5667,
      "Finally": 5668,
      "Hall": 5669,
      "Man": 5670,
      "Ne": 5671,
      "TA": 5672,
      "War": 5673,
      "With": 5674,
      "Why": 5675,
      "Where": 5676,
      "Zizek": 5677,
      "aun": 5678,
      "ault": 5679,
      "cut": 5680,
      "cons": 5681,
      "den": 5682,
      "ded": 5683,
      "dimensional": 5684,
      "ga": 5685,
      "gi": 5686,
      "gl": 5687,
      "gr": 5688,
      "gent": 5689,
      "gery": 5690,
      "girl": 5691,
      "hs": 5692,
      "hum": 5693,
      "ipp": 5694,
      "ja": 5695,
      "jar": 5696,
      "ki": 5697,
      "mo": 5698,
      "made": 5699,
      "nam": 5700,
      "noon": 5701,
      "oken": 5702,
      "pet": 5703,
      "ris": 5704,
      "roo": 5705,
      "rate": 5706,
      "tan": 5707,
      "yb": 5708,
      "yer": 5709,
      "Ġ?": 5710,
      "Ġ**": 5711,
      "Ġtill": 5712,
      "Ġtick": 5713,
      "Ġain": 5714,
      "hem": 5715,
      "Ġsen": 5716,
      "Ġske": 5717,
      "Ġsill": 5718,
      "isa": 5719,
      "Ġbi": 5720,
      "Ġbike": 5721,
      "Ġbene": 5722,
      "Ġbirds": 5723,
      "Ġmut": 5724,
      "Ġfif": 5725,
      "Ġfood": 5726,
      "Ġfame": 5727,
      "ndy": 5728,
      "orrow": 5729,
      "especially": 5730,
      "Ġtoler": 5731,
      "llner": 5732,
      "Ġpage": 5733,
      "Ġpark": 5734,
      "Ġdi": 5735,
      "Ġdu": 5736,
      "Ġinhab": 5737,
      "anch": 5738,
      "asha": 5739,
      "ashing": 5740,
      "ati": 5741,
      "atically": 5742,
      "atoes": 5743,
      "ĠIT": 5744,
      "Ġ/>*": 5745,
      "omn": 5746,
      "omed": 5747,
      "Ġge": 5748,
      "Ġgro": 5749,
      "Ġghost": 5750,
      "Ġgamb": 5751,
      "icable": 5752,
      "hattan": 5753,
      "Ġeth": 5754,
      "Ġbegan": 5755,
      "stru": 5756,
      "Ġho": 5757,
      "Ġhon": 5758,
      "Ġhip": 5759,
      "Ġhired": 5760,
      "Ġhunter": 5761,
      "Ġhidden": 5762,
      "alo": 5763,
      "alist": 5764,
      "ĠTw": 5765,
      "ĠTob": 5766,
      "ĠTIM": 5767,
      "Ġrender": 5768,
      "Ġreach": 5769,
      "owell": 5770,
      "Ġstale": 5771,
      "Ġstorm": 5772,
      "Ġstiff": 5773,
      "raying": 5774,
      "sec": 5775,
      "sey": 5776,
      "sequ": 5777,
      "entially": 5778,
      "etic": 5779,
      "ether": 5780,
      "aybe": 5781,
      "oooo": 5782,
      "Ġanx": 5783,
      "Ġforth": 5784,
      "Ġfortun": 5785,
      "Ġwhilst": 5786,
      "ceive": 5787,
      "ĠSk": 5788,
      "ĠSun": 5789,
      "ĠSus": 5790,
      "ĠSince": 5791,
      "ĠSorry": 5792,
      "ĠSwed": 5793,
      "ĠSOME": 5794,
      "Ġasked": 5795,
      "amer": 5796,
      "ĠBach": 5797,
      "Ġliber": 5798,
      "Ġlived": 5799,
      "illa": 5800,
      "illing": 5801,
      "illions": 5802,
      "Ġwear": 5803,
      "Ġwears": 5804,
      "Ġjail": 5805,
      "pel": 5806,
      "ĠHU": 5807,
      "ĠHollow": 5808,
      "ĠHitch": 5809,
      "ĠHonestly": 5810,
      "ĠCR": 5811,
      "ĠCandy": 5812,
      "ĠCabin": 5813,
      "ĠCannibal": 5814,
      "ĠWalker": 5815,
      "ĠMU": 5816,
      "ĠMandy": 5817,
      "Ġshred": 5818,
      "Ġshoes": 5819,
      "uni": 5820,
      "Ġsuit": 5821,
      "Ġsuicide": 5822,
      "ulous": 5823,
      "ĠDirect": 5824,
      "ĠDEA": 5825,
      "Ġmaid": 5826,
      "Ġabuse": 5827,
      "Ġabandon": 5828,
      "hington": 5829,
      "Ġaltern": 5830,
      "uses": 5831,
      "Ġvain": 5832,
      "Ġrise": 5833,
      "Ġdefin": 5834,
      "ĠNC": 5835,
      "ĠPy": 5836,
      "ĠPort": 5837,
      "ĠPac": 5838,
      "ĠPark": 5839,
      "ĠPower": 5840,
      "ĠPoor": 5841,
      "ĠLife": 5842,
      "ĠLord": 5843,
      "Ġmechan": 5844,
      "ĠJean": 5845,
      "ĠJerry": 5846,
      "ander": 5847,
      "Ġneat": 5848,
      "Ġneighb": 5849,
      "Ġunim": 5850,
      "ption": 5851,
      "fellner": 5852,
      "ĠRon": 5853,
      "ĠRod": 5854,
      "ĠRice": 5855,
      "ĠRoss": 5856,
      "ĠRock": 5857,
      "ĠRuth": 5858,
      "Ġproved": 5859,
      "respect": 5860,
      "ĠGet": 5861,
      "Ġfeet": 5862,
      "Ġtrust": 5863,
      "Ġtruck": 5864,
      "Ġlose": 5865,
      "aganda": 5866,
      "Ġintens": 5867,
      "uchfellner": 5868,
      "nered": 5869,
      "think": 5870,
      "Ġteach": 5871,
      "ogether": 5872,
      "ĠKra": 5873,
      "ĠKean": 5874,
      "Ġens": 5875,
      "Ġenorm": 5876,
      "Ġoffers": 5877,
      "Ġoffering": 5878,
      "others": 5879,
      "Ġsake": 5880,
      "Ġsafe": 5881,
      "Ġblock": 5882,
      "Ġarm": 5883,
      "Ġarmy": 5884,
      "ĠYuk": 5885,
      "Ġdism": 5886,
      "type": 5887,
      "Ġhorrid": 5888,
      "Ġqual": 5889,
      "Ġquigley": 5890,
      "mann": 5891,
      "ĠVal": 5892,
      "Ġrooting": 5893,
      "formed": 5894,
      "rested": 5895,
      "Ġspare": 5896,
      "Ġchuck": 5897,
      "Ġflow": 5898,
      "Ġslash": 5899,
      "Ġslave": 5900,
      "izes": 5901,
      "Ġafternoon": 5902,
      "Ġmini": 5903,
      "Ġrare": 5904,
      "Ġraise": 5905,
      "Ġraised": 5906,
      "Ġrarely": 5907,
      "Ġspew": 5908,
      "ellers": 5909,
      "atherine": 5910,
      "ipid": 5911,
      "Ġdesp": 5912,
      "Ġdesert": 5913,
      "Ġremain": 5914,
      "Ġlovely": 5915,
      "Ġchew": 5916,
      "ranks": 5917,
      "Ġdecision": 5918,
      "Ġfinding": 5919,
      "bered": 5920,
      "Ġrecyc": 5921,
      "Ġprint": 5922,
      "obody": 5923,
      "Ġobser": 5924,
      "Ġsexually": 5925,
      "Ġtravest": 5926,
      "Ġaware": 5927,
      "ossibly": 5928,
      "Ġbelief": 5929,
      "Ġsurface": 5930,
      "Ġsurgery": 5931,
      "Ġmislead": 5932,
      "rowing": 5933,
      "Ġcompar": 5934,
      "azing": 5935,
      "Ġappl": 5936,
      "Ġappalling": 5937,
      "Ġcamer": 5938,
      "Ġ195": 5939,
      "Ġsmoking": 5940,
      "Ġletting": 5941,
      "Ġletters": 5942,
      "Ġshare": 5943,
      "Ġsecurity": 5944,
      "Ġrelies": 5945,
      "Ġreluct": 5946,
      "Ġcalls": 5947,
      "Ġlesson": 5948,
      "ooth": 5949,
      "ĠBlonde": 5950,
      "ĠBloom": 5951,
      "Ġhandle": 5952,
      "Ġexplos": 5953,
      "Ġmindless": 5954,
      "Ġinsipid": 5955,
      "Ġpersonally": 5956,
      "Ġannoun": 5957,
      "ĠBeing": 5958,
      "Ġboat": 5959,
      "ordon": 5960,
      "Ġarts": 5961,
      "Ġartistic": 5962,
      "Ġmont": 5963,
      "Ġmonsters": 5964,
      "Ġstanding": 5965,
      "Ġedge": 5966,
      "Ġeduc": 5967,
      "existent": 5968,
      "Ġadds": 5969,
      "Ġnightm": 5970,
      "ĠArnold": 5971,
      "Ġclassics": 5972,
      "Ġbloody": 5973,
      "Ġcaring": 5974,
      "Ġrental": 5975,
      "Ġwondering": 5976,
      "Ġconvict": 5977,
      "Ġsadd": 5978,
      "Ġmisses": 5979,
      "Ġgeneration": 5980,
      "veloped": 5981,
      "Ġrepet": 5982,
      "Ġclosely": 5983,
      "Ġclosets": 5984,
      "Ġsymb": 5985,
      "Ġridiculously": 5986,
      "Ġcorpse": 5987,
      "ĠThough": 5988,
      "Ġcreating": 5989,
      "Ġcreative": 5990,
      "Ġpursu": 5991,
      "ĠClaire": 5992,
      "Ġpictures": 5993,
      "Ġdrown": 5994,
      "ILL": 5995,
      "Ġanimal": 5996,
      "Ġindication": 5997,
      "clad": 5998,
      "Ġsuspic": 5999,
      "Ġmedia": 6000,
      "ĠBritain": 6001,
      "ANT": 6002,
      "Ġvision": 6003,
      "Ġirre": 6004,
      "Ġmistakes": 6005,
      "Ġmistaken": 6006,
      "Ġpaying": 6007,
      "Ġsuperior": 6008,
      "Stroker": 6009,
      "Ġtypically": 6010,
      "Ġbreaking": 6011,
      "Ġrefer": 6012,
      "ONG": 6013,
      "Ġpsychological": 6014,
      "Ġstayed": 6015,
      "Ġamazingly": 6016,
      "Ġcontinue": 6017,
      "Ġcontinues": 6018,
      "Ġcontinuity": 6019,
      "Ġboredom": 6020,
      "Ġmotive": 6021,
      "Ġcolors": 6022,
      "Ġconstant": 6023,
      "ĠDanes": 6024,
      "Ġcollection": 6025,
      "ĠWithout": 6026,
      "Ġsuspenseful": 6027,
      "ENT": 6028,
      "Ġsentences": 6029,
      "Ġladies": 6030,
      "Ġthrows": 6031,
      "iques": 6032,
      "Ġpulls": 6033,
      "Ġchanging": 6034,
      "Ġraped": 6035,
      "Ġpresented": 6036,
      "Ġpurposes": 6037,
      "Ġvillains": 6038,
      "Ġswear": 6039,
      "ĠWashington": 6040,
      "ĠGuy": 6041,
      "Ġmembers": 6042,
      "Ġlargely": 6043,
      "ĠCarmen": 6044,
      "Ġbargain": 6045,
      "Ġfocused": 6046,
      "Ġstreets": 6047,
      "?\"<": 6048,
      "Ġprivate": 6049,
      "Ġloses": 6050,
      "ĠShakespeare": 6051,
      "Ġsuffers": 6052,
      "Ġprojects": 6053,
      "Ġrequires": 6054,
      "Ġexecuted": 6055,
      "ĠPride": 6056,
      "Ġconcerns": 6057,
      "Ġdrawing": 6058,
      "Ġignore": 6059,
      "Ġtouching": 6060,
      "ĠNext": 6061,
      "Ġexistence": 6062,
      "Ġslightest": 6063,
      "Ġtheaters": 6064,
      "Ġaccepted": 6065,
      "Ġautom": 6066,
      "Ġcruise": 6067,
      "Ġlaun": 6068,
      "Ġharsh": 6069,
      "Ġsteps": 6070,
      "Ġdiscuss": 6071,
      "Ġdesperately": 6072,
      "Ġformulaic": 6073,
      "Ġhomes": 6074,
      "ĠOtherwise": 6075,
      "Ġsympathy": 6076,
      "Ġmask": 6077,
      "Ġstinker": 6078,
      "Ġstatus": 6079,
      "Ġstabbed": 6080,
      "ĠActually": 6081,
      "Ġprogram": 6082,
      "Ġbaseball": 6083,
      "Ġfolk": 6084,
      "Ġscientists": 6085,
      "load": 6086,
      "ĠMatrix": 6087,
      "Ġsucceeded": 6088,
      "Ġpropaganda": 6089,
      "Ġ1930": 6090,
      "Ġencounter": 6091,
      "Ġinvestigate": 6092,
      "Ġcardboard": 6093,
      "Ġhyster": 6094,
      "Ġreduced": 6095,
      "Ġspecific": 6096,
      "Ġsleazy": 6097,
      "Ġthroat": 6098,
      "Ġnerd": 6099,
      "ĠBasically": 6100,
      "Ġadults": 6101,
      "Ġemphas": 6102,
      "Ġpuzz": 6103,
      "Ġthousand": 6104,
      "ntonio": 6105,
      "Ġargument": 6106,
      "Ġrelatively": 6107,
      "Ġcriminal": 6108,
      "Ġrisk": 6109,
      "Ġappreciate": 6110,
      "Ġexcessive": 6111,
      "Ġcontinued": 6112,
      "Ġgoofy": 6113,
      "Ġsemi": 6114,
      "Ġshouting": 6115,
      "ĠREALLY": 6116,
      "Ġprofessional": 6117,
      "ĠShahid": 6118,
      "Basic": 6119,
      "porary": 6120,
      "ĠSpeaking": 6121,
      "ĠPolice": 6122,
      "aborate": 6123,
      "Ġmartial": 6124,
      "Ġmildly": 6125,
      "Ġnominated": 6126,
      "Ġunknown": 6127,
      "Ġunintentionally": 6128,
      "Ġresolution": 6129,
      "Ġintriguing": 6130,
      "Ġgorgeous": 6131,
      "Ġstilted": 6132,
      "ĠRomero": 6133,
      "ĠOffice": 6134,
      "Ġgratuit": 6135,
      "Ġcontroversial": 6136,
      "Ġconspiracy": 6137,
      "Ġgymnast": 6138,
      "lotte": 6139,
      "aylor": 6140,
      "ĠMOVIE": 6141,
      "emonicus": 6142,
      "Ġunbearable": 6143,
      "Ġpreachy": 6144,
      "Ġcontemporary": 6145,
      "ĠCarpenter": 6146,
      "Browne": 6147,
      "ĠHitchcock": 6148,
      "ĠKeanu": 6149,
      "ĠYukon": 6150,
      "Ġtravesty": 6151,
      "Ġsymbol": 6152,
      "After": 6153,
      "Americ": 6154,
      "Director": 6155,
      "Ed": 6156,
      "Fi": 6157,
      "GS": 6158,
      "Here": 6159,
      "Jon": 6160,
      "Jim": 6161,
      "Men": 6162,
      "Mart": 6163,
      "NY": 6164,
      "Secondly": 6165,
      "TT": 6166,
      "When": 6167,
      "ae": 6168,
      "ban": 6169,
      "breaking": 6170,
      "cise": 6171,
      "case": 6172,
      "dinary": 6173,
      "echn": 6174,
      "eged": 6175,
      "ffe": 6176,
      "ffered": 6177,
      "gon": 6178,
      "hot": 6179,
      "ient": 6180,
      "ients": 6181,
      "iently": 6182,
      "mother": 6183,
      "mitted": 6184,
      "nic": 6185,
      "nus": 6186,
      "och": 6187,
      "pre": 6188,
      "port": 6189,
      "parent": 6190,
      "run": 6191,
      "spe": 6192,
      "school": 6193,
      "ta": 6194,
      "than": 6195,
      "tick": 6196,
      "uction": 6197,
      "ville": 6198,
      "was": 6199,
      "wers": 6200,
      "wink": 6201,
      "why": 6202,
      "woman": 6203,
      "yr": 6204,
      "ys": 6205,
      "ysm": 6206,
      "zil": 6207,
      "Ġing": 6208,
      "Ġ..": 6209,
      "Ġtight": 6210,
      "Ġtag": 6211,
      "Ġtap": 6212,
      "Ġtree": 6213,
      "Ġtons": 6214,
      "Ġtape": 6215,
      "Ġax": 6216,
      "Ġafore": 6217,
      "inter": 6218,
      "Ġsch": 6219,
      "Ġsink": 6220,
      "Ġsits": 6221,
      "requ": 6222,
      "Ġwig": 6223,
      "Ġwins": 6224,
      "Ġwives": 6225,
      "Ġwoe": 6226,
      "Ġwitty": 6227,
      "Ġwreck": 6228,
      "Ġol": 6229,
      "isc": 6230,
      "ern": 6231,
      "eral": 6232,
      "erior": 6233,
      "Ġbon": 6234,
      "Ġbul": 6235,
      "Ġbond": 6236,
      "Ġmotion": 6237,
      "Ġfrequ": 6238,
      "Ġcust": 6239,
      "Ġcock": 6240,
      "Ġcave": 6241,
      "organ": 6242,
      "ouissance": 6243,
      "oni": 6244,
      "only": 6245,
      "Ġtoward": 6246,
      "Ġped": 6247,
      "Ġpet": 6248,
      "Ġpair": 6249,
      "Ġpush": 6250,
      "Ġpushed": 6251,
      "Ġoffe": 6252,
      "Ġden": 6253,
      "Ġdub": 6254,
      "Ġdomin": 6255,
      "Ġdimin": 6256,
      "Ġdirty": 6257,
      "Ġlit": 6258,
      "Ġlon": 6259,
      "Ġlas": 6260,
      "Ġlazy": 6261,
      "Ġinfect": 6262,
      "Ġinex": 6263,
      "Ġinev": 6264,
      "aning": 6265,
      "asm": 6266,
      "atty": 6267,
      "brow": 6268,
      "Ġ/>'": 6269,
      "omen": 6270,
      "arante": 6271,
      "Ġguts": 6272,
      "icy": 6273,
      "icop": 6274,
      "lee": 6275,
      "oted": 6276,
      "otal": 6277,
      "Ġeat": 6278,
      "Ġeight": 6279,
      "Ġnumer": 6280,
      "Ġbeach": 6281,
      "ste": 6282,
      "stal": 6283,
      "stery": 6284,
      "style": 6285,
      "Ġhiding": 6286,
      "aling": 6287,
      "alog": 6288,
      "alty": 6289,
      "althy": 6290,
      "ĠTone": 6291,
      "ĠTurt": 6292,
      "ĠTyran": 6293,
      "ĠTaylor": 6294,
      "velli": 6295,
      "ilip": 6296,
      "Ġrevel": 6297,
      "Ġheck": 6298,
      "Ġstunt": 6299,
      "rab": 6300,
      "addy": 6301,
      "etwork": 6302,
      "oops": 6303,
      "Ġyawn": 6304,
      "Ġanthology": 6305,
      "ĠAnt": 6306,
      "ĠAcc": 6307,
      "Ġsend": 6308,
      "Ġseat": 6309,
      "Ġsear": 6310,
      "ĠSa": 6311,
      "ĠSar": 6312,
      "ĠSull": 6313,
      "ĠSund": 6314,
      "irky": 6315,
      "rob": 6316,
      "ama": 6317,
      "amor": 6318,
      "amous": 6319,
      "amma": 6320,
      "Ġnotion": 6321,
      "Ġnotably": 6322,
      "ĠBI": 6323,
      "ĠBarb": 6324,
      "ĠBesides": 6325,
      "ĠBait": 6326,
      "ĠBuchfellner": 6327,
      "Ġlibr": 6328,
      "tery": 6329,
      "Ġjerk": 6330,
      "ĠHit": 6331,
      "ĠHain": 6332,
      "ĠHist": 6333,
      "ĠHEA": 6334,
      "ĠHoly": 6335,
      "ĠCher": 6336,
      "ĠCause": 6337,
      "ĠCare": 6338,
      "ĠCinem": 6339,
      "ĠCliver": 6340,
      "ĠCorey": 6341,
      "ĠCyb": 6342,
      "ĠWW": 6343,
      "ĠWoman": 6344,
      "ĠMi": 6345,
      "ĠMass": 6346,
      "ĠMAN": 6347,
      "ĠMuni": 6348,
      "Ġshut": 6349,
      "Ġshod": 6350,
      "Ġsuffered": 6351,
      "outs": 6352,
      "ulate": 6353,
      "Ġdod": 6354,
      "Ġdoomed": 6355,
      "iffe": 6356,
      "ĠDorn": 6357,
      "ĠDiet": 6358,
      "ĠDylan": 6359,
      "ĠDemonicus": 6360,
      "Ġfranch": 6361,
      "Ġplag": 6362,
      "Ġexagger": 6363,
      "Ġmap": 6364,
      "Ġmaint": 6365,
      "Ġwhoever": 6366,
      "Ġabilities": 6367,
      "Ġalleged": 6368,
      "elve": 6369,
      "Ġchased": 6370,
      "Ġalt": 6371,
      "Ġalas": 6372,
      "Ġworry": 6373,
      "Ġworried": 6374,
      "Ġordinary": 6375,
      "Ġvom": 6376,
      "Ġvap": 6377,
      "Ġvote": 6378,
      "Ġring": 6379,
      "Ġrat": 6380,
      "Ġrant": 6381,
      "Ġrush": 6382,
      "Ġrats": 6383,
      "Ġrational": 6384,
      "tend": 6385,
      "tended": 6386,
      "Ġdebut": 6387,
      "ĠNEVER": 6388,
      "olf": 6389,
      "ĠFest": 6390,
      "ĠPh": 6391,
      "ĠPan": 6392,
      "ĠPut": 6393,
      "ĠPitt": 6394,
      "ĠProdu": 6395,
      "ĠPranks": 6396,
      "ĠLo": 6397,
      "ĠLong": 6398,
      "ĠLynch": 6399,
      "ĠLisa": 6400,
      "anta": 6401,
      "Ġconce": 6402,
      "Ġconvers": 6403,
      "quette": 6404,
      "ĠJane": 6405,
      "ĠJosh": 6406,
      "andre": 6407,
      "Ġunus": 6408,
      "Ġuneven": 6409,
      "Ġunivers": 6410,
      "Ġnose": 6411,
      "ĠRun": 6412,
      "ĠRain": 6413,
      "ĠRick": 6414,
      "ĠRather": 6415,
      "ĠRush": 6416,
      "ĠRitter": 6417,
      "Ġwatcher": 6418,
      "reshing": 6419,
      "Ġlegend": 6420,
      "Ġupst": 6421,
      "ĠEn": 6422,
      "ĠEver": 6423,
      "ĠOut": 6424,
      "ĠOli": 6425,
      "aka": 6426,
      "ĠGree": 6427,
      "ĠGOOD": 6428,
      "Ġstorytelling": 6429,
      "Ġmans": 6430,
      "Ġmaniac": 6431,
      "Ġsheriff": 6432,
      "Ġhadn": 6433,
      "Ġtrashy": 6434,
      "Ġlock": 6435,
      "Ġlogic": 6436,
      "Ġclum": 6437,
      "agine": 6438,
      "Ġ14": 6439,
      "Ġ16": 6440,
      "thrill": 6441,
      "Ġtears": 6442,
      "Ġteeth": 6443,
      "abeth": 6444,
      "ĠKong": 6445,
      "ĠKiki": 6446,
      "Ġende": 6447,
      "Ġendure": 6448,
      "Ġsaves": 6449,
      "soci": 6450,
      "mented": 6451,
      "mentioned": 6452,
      "Ġblow": 6453,
      "Ġblond": 6454,
      "Ġblown": 6455,
      "Ġguarante": 6456,
      "ĠYe": 6457,
      "Ġdisease": 6458,
      "Ġdirectly": 6459,
      "ffer": 6460,
      "Ġrealism": 6461,
      "Ġrealizing": 6462,
      "Ġknowing": 6463,
      "ictable": 6464,
      "ĠViet": 6465,
      "Ġaged": 6466,
      "Ġagrees": 6467,
      "ensical": 6468,
      "Ġsports": 6469,
      "Ġspoken": 6470,
      "Ġsloppy": 6471,
      "izz": 6472,
      "Ġserved": 6473,
      "ibilities": 6474,
      "Ġcheated": 6475,
      "Ġterrif": 6476,
      "Ġincreas": 6477,
      "Ġattitude": 6478,
      "Ġrecall": 6479,
      "ription": 6480,
      "athol": 6481,
      "Ġhappily": 6482,
      "Ġperforming": 6483,
      "ctions": 6484,
      "thew": 6485,
      "Ġreasonable": 6486,
      "iavelli": 6487,
      "Ġtribe": 6488,
      "Ġoriginally": 6489,
      "Ġtrapped": 6490,
      "Ġawfully": 6491,
      "Ġscreening": 6492,
      "Ġbelieves": 6493,
      "Ġthoughts": 6494,
      "Ġcomplet": 6495,
      "Ġfinan": 6496,
      "entional": 6497,
      "Ġinvites": 6498,
      "ĠShea": 6499,
      "ĠShell": 6500,
      "Ġcompos": 6501,
      "Ġcourage": 6502,
      "inese": 6503,
      "Ġborn": 6504,
      "Ġborder": 6505,
      "azer": 6506,
      "Ġviews": 6507,
      "Ġ35": 6508,
      "ĠChinese": 6509,
      "Ġaccused": 6510,
      "Ġaccomp": 6511,
      "Ġ194": 6512,
      "ivan": 6513,
      "Ġsmart": 6514,
      "Ġsham": 6515,
      "ĠWhatever": 6516,
      "acted": 6517,
      "Ġmainly": 6518,
      "Ġabsence": 6519,
      "ĠAmericans": 6520,
      "Ġchildish": 6521,
      "Ġdifferences": 6522,
      "Ġpossess": 6523,
      "Ġconsist": 6524,
      "Ġinsane": 6525,
      "Ġinsomn": 6526,
      "Ġriding": 6527,
      "Ġfancy": 6528,
      "INK": 6529,
      "ĠWendy": 6530,
      "Ġartists": 6531,
      "Ġartific": 6532,
      "Ġkeeping": 6533,
      "Ġepic": 6534,
      "cover": 6535,
      "ĠManhattan": 6536,
      "ĠUnlike": 6537,
      "ĠUncle": 6538,
      "Ġedit": 6539,
      "Ġeditor": 6540,
      "Ġglow": 6541,
      "Ġglasses": 6542,
      "ĠArly": 6543,
      "ĠArquette": 6544,
      "rett": 6545,
      "Ġcarried": 6546,
      "Ġacqu": 6547,
      "Ġhelicop": 6548,
      "......": 6549,
      "........": 6550,
      "Ġconvin": 6551,
      "Ġconviction": 6552,
      "white": 6553,
      "Ġcopies": 6554,
      "Ġcloset": 6555,
      "insaw": 6556,
      "Ġcommentary": 6557,
      "Ġphony": 6558,
      "Ġcreature": 6559,
      "annon": 6560,
      "ission": 6561,
      "Ġpassing": 6562,
      "Ġpassion": 6563,
      "ĠJohnny": 6564,
      "ĠLucy": 6565,
      "Ġpattern": 6566,
      "Ġfights": 6567,
      "Ġmurderous": 6568,
      "Ġuncle": 6569,
      "Ġbrand": 6570,
      "Ġpicking": 6571,
      "ĠTHEY": 6572,
      "ombies": 6573,
      "oiler": 6574,
      "oilers": 6575,
      "Ġindust": 6576,
      "Ġindiffe": 6577,
      "class": 6578,
      "Ġthrills": 6579,
      "Ġthrilling": 6580,
      "Ġconsiderably": 6581,
      "rames": 6582,
      "Ġvisual": 6583,
      "Ġvisuals": 6584,
      "Ġsuperb": 6585,
      "Ġoccurs": 6586,
      "Ġrefreshing": 6587,
      "ificent": 6588,
      "Ġswit": 6589,
      ".)<": 6590,
      "mmm": 6591,
      "Ġruins": 6592,
      "Ġprofound": 6593,
      "OUS": 6594,
      "Ġamazed": 6595,
      "Ġcolour": 6596,
      "onym": 6597,
      "Ġinterview": 6598,
      "ĠDanny": 6599,
      "Ġhumorous": 6600,
      "Ġlawyer": 6601,
      "Ġbuys": 6602,
      "Ġ99": 6603,
      "Ġpresentation": 6604,
      "ĠSimps": 6605,
      "Ġshocked": 6606,
      "ĠDoes": 6607,
      "liners": 6608,
      "ĠGujar": 6609,
      "ĠEngland": 6610,
      "ebast": 6611,
      "Ġresearch": 6612,
      "Ġrepeat": 6613,
      "ĠWillie": 6614,
      "Ġsoftware": 6615,
      "Ġvalues": 6616,
      "Ġrevealing": 6617,
      "Ġcapable": 6618,
      "Ġholding": 6619,
      "Ġrequired": 6620,
      "Ġadapted": 6621,
      "ĠQue": 6622,
      "Ġcritical": 6623,
      "ĠSchiavelli": 6624,
      "ĠNeed": 6625,
      "Ġclaimed": 6626,
      "Ġtwisted": 6627,
      "Ġkidnap": 6628,
      "Ġsettings": 6629,
      "ĠAustralia": 6630,
      "Ġ2000": 6631,
      "Ġbrutally": 6632,
      "Ġlandsc": 6633,
      "Ġseasons": 6634,
      "ĠBrando": 6635,
      "Ġimmig": 6636,
      "Ġdressed": 6637,
      "ĠVampires": 6638,
      "uracy": 6639,
      "Ġcompetition": 6640,
      "ĠScottish": 6641,
      "Ġconnection": 6642,
      "Ġappealing": 6643,
      "ACE": 6644,
      "Ġgrowing": 6645,
      "Ġwarned": 6646,
      "Ġbeaten": 6647,
      "ĠAlexandre": 6648,
      "ĠMartin": 6649,
      "Ġsplit": 6650,
      "Ġsummer": 6651,
      "Ġofficer": 6652,
      "Ġdesigned": 6653,
      "Ġdestroyed": 6654,
      "Marie": 6655,
      "Ġopera": 6656,
      "Ġfictional": 6657,
      "Ġsoldier": 6658,
      "Ġcompelling": 6659,
      "Ġencounters": 6660,
      "shaw": 6661,
      "Ġcynical": 6662,
      "Ġstretch": 6663,
      "oopers": 6664,
      "Ġmachines": 6665,
      "ĠJessica": 6666,
      "Ġcontestants": 6667,
      "Ġdrinking": 6668,
      "Ġphysical": 6669,
      "ĠAbout": 6670,
      "ĠBoyer": 6671,
      "ĠWHY": 6672,
      "ĠONLY": 6673,
      "Ġsatisfy": 6674,
      "Ġtranslation": 6675,
      "burne": 6676,
      "Ġthousands": 6677,
      "ĠVenus": 6678,
      "ĠVenice": 6679,
      "AMP": 6680,
      "Ġrendition": 6681,
      "Ġproperly": 6682,
      "Ġmiserable": 6683,
      "Ġmiserably": 6684,
      "Ġresemblance": 6685,
      "Planet": 6686,
      "Ġfunding": 6687,
      "Ġpraise": 6688,
      "Ġperspect": 6689,
      "ĠChannel": 6690,
      "ĠMickey": 6691,
      "ĠJewish": 6692,
      "Ġprincess": 6693,
      "Ġexploitation": 6694,
      "Ġliterally": 6695,
      "Ġgigg": 6696,
      "Ġsophistic": 6697,
      "Ġvaguely": 6698,
      "Ġoveracting": 6699,
      "Ġblatant": 6700,
      "onsidering": 6701,
      "Ġmultiple": 6702,
      "Anyway": 6703,
      "Ġgraphic": 6704,
      "ĠThanks": 6705,
      "ĠHalf": 6706,
      "Ġconclud": 6707,
      "ĠGranted": 6708,
      "Ġstrictly": 6709,
      "Ġsignificant": 6710,
      "Ġinnocent": 6711,
      "Ġincompetent": 6712,
      "oriane": 6713,
      "ĠTorrance": 6714,
      "Ġjealous": 6715,
      "ĠCapshaw": 6716,
      "ĠFishburne": 6717,
      "Ġencourage": 6718,
      "Ġkidnappers": 6719,
      "jatya": 6720,
      "Ġspectac": 6721,
      "Ġbroken": 6722,
      "original": 6723,
      "ĠSalman": 6724,
      "ĠWilson": 6725,
      "ĠLeads": 6726,
      "Ġpregnant": 6727,
      "Ġradio": 6728,
      "Ġenthus": 6729,
      "Ġuncomfort": 6730,
      "Ġignorant": 6731,
      "Ġsacrifices": 6732,
      "ĠTobias": 6733,
      "Ġrendering": 6734,
      "ĠKramer": 6735,
      "Ġcomparison": 6736,
      "Ġrepetitive": 6737,
      "Ġgratuitous": 6738,
      "Ġaforementioned": 6739,
      "Ġwoefully": 6740,
      "Ġcustom": 6741,
      "Ġinevitable": 6742,
      "Ġnumerous": 6743,
      "ĠSullivan": 6744,
      "ĠDornwink": 6745,
      "ĠDietrich": 6746,
      "ĠFestival": 6747,
      "ĠVietnam": 6748,
      "Ġincreasingly": 6749,
      "ĠGujarati": 6750,
      "\"<": 6751,
      "15": 6752,
      "60": 6753,
      "99": 6754,
      "Am": 6755,
      "AST": 6756,
      "Br": 6757,
      "Cabin": 6758,
      "Do": 6759,
      "DEN": 6760,
      "El": 6761,
      "Ex": 6762,
      "Fever": 6763,
      "Friday": 6764,
      "Gra": 6765,
      "High": 6766,
      "ION": 6767,
      "Jones": 6768,
      "Jesus": 6769,
      "Kevin": 6770,
      "La": 6771,
      "Love": 6772,
      "Mur": 6773,
      "Moon": 6774,
      "Michael": 6775,
      "Maybe": 6776,
      "ND": 6777,
      "New": 6778,
      "Or": 6779,
      "Okay": 6780,
      "OVE": 6781,
      "Sh": 6782,
      "See": 6783,
      "Tit": 6784,
      "Than": 6785,
      "Two": 6786,
      "VEN": 6787,
      "Wow": 6788,
      "WAY": 6789,
      "aq": 6790,
      "aive": 6791,
      "after": 6792,
      "away": 6793,
      "bas": 6794,
      "buster": 6795,
      "bulous": 6796,
      "cra": 6797,
      "cont": 6798,
      "called": 6799,
      "ds": 6800,
      "des": 6801,
      "dom": 6802,
      "ef": 6803,
      "eous": 6804,
      "fit": 6805,
      "fet": 6806,
      "fun": 6807,
      "ficul": 6808,
      "family": 6809,
      "gie": 6810,
      "iat": 6811,
      "ivery": 6812,
      "iably": 6813,
      "ipping": 6814,
      "jo": 6815,
      "jud": 6816,
      "kish": 6817,
      "law": 6818,
      "mart": 6819,
      "mond": 6820,
      "nalist": 6821,
      "pro": 6822,
      "rict": 6823,
      "rise": 6824,
      "rical": 6825,
      "rash": 6826,
      "sur": 6827,
      "specially": 6828,
      "uz": 6829,
      "ule": 6830,
      "ugh": 6831,
      "uge": 6832,
      "upt": 6833,
      "uise": 6834,
      "ugg": 6835,
      "vy": 6836,
      "vious": 6837,
      "vage": 6838,
      "video": 6839,
      "whel": 6840,
      "yeah": 6841,
      "zer": 6842,
      "Ġton": 6843,
      "Ġtube": 6844,
      "Ġabr": 6845,
      "Ġaffect": 6846,
      "Ġaunt": 6847,
      "hell": 6848,
      "hest": 6849,
      "hether": 6850,
      "inis": 6851,
      "inate": 6852,
      "inja": 6853,
      "Ġsau": 6854,
      "Ġsag": 6855,
      "Ġsouthern": 6856,
      "rell": 6857,
      "reary": 6858,
      "revers": 6859,
      "reland": 6860,
      "rehens": 6861,
      "Ġwound": 6862,
      "Ġwond": 6863,
      "Ġwave": 6864,
      "Ġoil": 6865,
      "erky": 6866,
      "Ġbin": 6867,
      "Ġbound": 6868,
      "Ġboss": 6869,
      "Ġboot": 6870,
      "Ġbuddy": 6871,
      "Ġmic": 6872,
      "Ġmall": 6873,
      "Ġmum": 6874,
      "Ġmars": 6875,
      "Ġmira": 6876,
      "Ġmudd": 6877,
      "Ġmirror": 6878,
      "Ġfri": 6879,
      "Ġfired": 6880,
      "Ġfix": 6881,
      "Ġfrench": 6882,
      "Ġfreed": 6883,
      "nda": 6884,
      "ndant": 6885,
      "itate": 6886,
      "itiz": 6887,
      "itated": 6888,
      "itals": 6889,
      "Ġcig": 6890,
      "Ġcars": 6891,
      "Ġcold": 6892,
      "Ġcarn": 6893,
      "Ġcuri": 6894,
      "Ġcivil": 6895,
      "ora": 6896,
      "oration": 6897,
      "onard": 6898,
      "Ġtool": 6899,
      "Ġtoken": 6900,
      "Ġpin": 6901,
      "Ġpale": 6902,
      "Ġpomp": 6903,
      "Ġdign": 6904,
      "Ġdyn": 6905,
      "Ġdreary": 6906,
      "Ġlie": 6907,
      "Ġloo": 6908,
      "Ġlaid": 6909,
      "ange": 6910,
      "anity": 6911,
      "ato": 6912,
      "atre": 6913,
      "atur": 6914,
      "atures": 6915,
      "oming": 6916,
      "omas": 6917,
      "arm": 6918,
      "Ġthread": 6919,
      "Ġisol": 6920,
      "Ġgem": 6921,
      "Ġgee": 6922,
      "icit": 6923,
      "icing": 6924,
      "icol": 6925,
      "icating": 6926,
      "leg": 6927,
      "otocol": 6928,
      "Ġech": 6929,
      "Ġeager": 6930,
      "Ġnaive": 6931,
      "Ġbell": 6932,
      "Ġbears": 6933,
      "Ġbeats": 6934,
      "stars": 6935,
      "ctive": 6936,
      "lyde": 6937,
      "Ġhous": 6938,
      "Ġhire": 6939,
      "Ġhides": 6940,
      "Ġhosp": 6941,
      "ales": 6942,
      "iemann": 6943,
      "ĠTer": 6944,
      "ĠTen": 6945,
      "ĠTur": 6946,
      "ĠTex": 6947,
      "Ġmock": 6948,
      "ilos": 6949,
      "ilation": 6950,
      "Ġheaven": 6951,
      "Ġstone": 6952,
      "Ġstol": 6953,
      "Ġstumb": 6954,
      "Ġstalker": 6955,
      "Ġstopped": 6956,
      "semble": 6957,
      "ida": 6958,
      "ente": 6959,
      "ented": 6960,
      "Ġyadd": 6961,
      "child": 6962,
      "Ġforcing": 6963,
      "ĠAh": 6964,
      "ĠAbs": 6965,
      "ĠABC": 6966,
      "ĠAID": 6967,
      "ĠTheatre": 6968,
      "Ġsell": 6969,
      "Ġsends": 6970,
      "Ġsepar": 6971,
      "Ġwhining": 6972,
      "ĠSN": 6973,
      "ĠSan": 6974,
      "ĠSab": 6975,
      "ĠSav": 6976,
      "ĠSangu": 6977,
      "ĠSellers": 6978,
      "ĠSanta": 6979,
      "ĠSebast": 6980,
      "Ġassoci": 6981,
      "iro": 6982,
      "irited": 6983,
      "rier": 6984,
      "hero": 6985,
      "amo": 6986,
      "amic": 6987,
      "ĠBo": 6988,
      "ĠBat": 6989,
      "ĠBro": 6990,
      "ĠBest": 6991,
      "ĠBond": 6992,
      "ĠBoul": 6993,
      "ĠBuddy": 6994,
      "Ġlies": 6995,
      "urry": 6996,
      "ouldn": 6997,
      "Ġwebs": 6998,
      "Ġwealthy": 6999,
      "tering": 7000,
      "Ġscra": 7001,
      "Ġscand": 7002,
      "Ġscope": 7003,
      "Ġscrat": 7004,
      "Ġjack": 7005,
      "ĠHorn": 7006,
      "ĠHouse": 7007,
      "ĠHamlet": 7008,
      "ĠCathol": 7009,
      "ĠClyde": 7010,
      "Ġking": 7011,
      "ĠWy": 7012,
      "ĠWag": 7013,
      "ĠWitch": 7014,
      "ĠWAS": 7015,
      "ĠMore": 7016,
      "ĠMount": 7017,
      "ĠMont": 7018,
      "ĠMaster": 7019,
      "ĠMatt": 7020,
      "Ġshop": 7021,
      "emies": 7022,
      "emember": 7023,
      "uls": 7024,
      "ulation": 7025,
      "ifetime": 7026,
      "ĠDar": 7027,
      "ĠDel": 7028,
      "ĠDep": 7029,
      "ĠDead": 7030,
      "ĠDark": 7031,
      "ĠDream": 7032,
      "ĠDean": 7033,
      "Ġplat": 7034,
      "Ġplane": 7035,
      "Ġplague": 7036,
      "Ġabysm": 7037,
      "venile": 7038,
      "Ġchain": 7039,
      "Ġchair": 7040,
      "Ġchases": 7041,
      "asted": 7042,
      "Ġalike": 7043,
      "redictable": 7044,
      "Ġworship": 7045,
      "usions": 7046,
      "ussy": 7047,
      "Ġvast": 7048,
      "Ġvol": 7049,
      "Ġvide": 7050,
      "Ġvoc": 7051,
      "gends": 7052,
      "tell": 7053,
      "Ġdeb": 7054,
      "Ġdef": 7055,
      "Ġdevoid": 7056,
      "ĠNor": 7057,
      "ĠNorm": 7058,
      "ĠNobody": 7059,
      "oles": 7060,
      "ĠFR": 7061,
      "ĠFather": 7062,
      "ĠFord": 7063,
      "ĠFair": 7064,
      "Ġoutd": 7065,
      "Ġoutstanding": 7066,
      "ĠPoll": 7067,
      "ĠPitch": 7068,
      "istan": 7069,
      "istance": 7070,
      "ĠLil": 7071,
      "ĠLos": 7072,
      "ĠLind": 7073,
      "ĠLaw": 7074,
      "ĠLOT": 7075,
      "ĠLane": 7076,
      "ĠLazer": 7077,
      "Ġwheel": 7078,
      "Ġmere": 7079,
      "Ġmeas": 7080,
      "Ġconsequ": 7081,
      "ĠJu": 7082,
      "ĠJere": 7083,
      "ooky": 7084,
      "Ġunse": 7085,
      "Ġunli": 7086,
      "Ġunnatural": 7087,
      "umar": 7088,
      "umst": 7089,
      "Ġnoise": 7090,
      "ĠRight": 7091,
      "ĠRose": 7092,
      "ĠRoman": 7093,
      "ĠRaf": 7094,
      "ĠRachel": 7095,
      "Ġprol": 7096,
      "Ġproving": 7097,
      "Ġprops": 7098,
      "Ġlegs": 7099,
      "ĠElin": 7100,
      "ĠOld": 7101,
      "ĠOur": 7102,
      "ĠOliver": 7103,
      "Ġscenario": 7104,
      "aki": 7105,
      "ounding": 7106,
      "ĠGa": 7107,
      "ĠGi": 7108,
      "ĠGent": 7109,
      "ĠGreen": 7110,
      "ĠGiven": 7111,
      "Ġfears": 7112,
      "Ġthereof": 7113,
      "arer": 7114,
      "Ġoverd": 7115,
      "Ġoverlook": 7116,
      "Ġcloud": 7117,
      "again": 7118,
      "orean": 7119,
      "Ġbetray": 7120,
      "...)": 7121,
      "abe": 7122,
      "ĠKumar": 7123,
      "Ġenemies": 7124,
      "Ġsappy": 7125,
      "Ġpeace": 7126,
      "Ġblind": 7127,
      "Ġarous": 7128,
      "Ġarrested": 7129,
      "Ġtwelve": 7130,
      "Ġeverywhere": 7131,
      "Ġdiss": 7132,
      "acre": 7133,
      "acan": 7134,
      "aches": 7135,
      "Ġhorrend": 7136,
      "Ġquirky": 7137,
      "ressed": 7138,
      "oseph": 7139,
      "icture": 7140,
      "ĠVi": 7141,
      "ĠVin": 7142,
      "Ġthru": 7143,
      "ishment": 7144,
      "ĠHead": 7145,
      "assion": 7146,
      "Ġrolling": 7147,
      "forward": 7148,
      "ĠIng": 7149,
      "ensed": 7150,
      "Ġplayers": 7151,
      "Ġade": 7152,
      "iano": 7153,
      "Ġspin": 7154,
      "Ġspite": 7155,
      "Ġchose": 7156,
      "Ġchurch": 7157,
      "izable": 7158,
      "Ġmins": 7159,
      "Ġracist": 7160,
      "Ġservice": 7161,
      "Ġ24": 7162,
      "Ġdesce": 7163,
      "Ġremains": 7164,
      "ibals": 7165,
      "Ġchest": 7166,
      "Ġincor": 7167,
      "Ġdecade": 7168,
      "Ġdecap": 7169,
      "Ġfeelings": 7170,
      "Ġbride": 7171,
      "Ġtalked": 7172,
      "ĠStory": 7173,
      "obb": 7174,
      "obs": 7175,
      "Ġcontract": 7176,
      "Ġcontrib": 7177,
      "Ġcontrary": 7178,
      "Ġkidding": 7179,
      "erton": 7180,
      "Ġstarting": 7181,
      "Ġdrags": 7182,
      "Ġdownright": 7183,
      "Ġgotta": 7184,
      "Ġtriump": 7185,
      "Ġawake": 7186,
      "Ġembr": 7187,
      "Ġsurrog": 7188,
      "Ġmisfortun": 7189,
      "ĠAlone": 7190,
      "ĠAlison": 7191,
      "ĠAlamo": 7192,
      "ĠSheck": 7193,
      "ointed": 7194,
      "azine": 7195,
      "Ġgenitals": 7196,
      "Ġviewed": 7197,
      "Ġbitch": 7198,
      "Ġbug": 7199,
      "Ġbuying": 7200,
      "Ġdifficul": 7201,
      "Ġcomedic": 7202,
      "rita": 7203,
      "Ġaccess": 7204,
      "Ġaccording": 7205,
      "Ġbothered": 7206,
      "ivor": 7207,
      "Ġsmar": 7208,
      "Ġshape": 7209,
      "Ġdialogues": 7210,
      "Ġrelated": 7211,
      "ĠJoan": 7212,
      "Ġopens": 7213,
      "Ġhanded": 7214,
      "Ġchildhood": 7215,
      "Ġelaborate": 7216,
      "Ġevol": 7217,
      "Ġevidence": 7218,
      "Ġlasted": 7219,
      "Ġconfusion": 7220,
      "angle": 7221,
      "ĠScream": 7222,
      "ĠScroo": 7223,
      "Ġbasis": 7224,
      "Ġpossessed": 7225,
      "empted": 7226,
      "jected": 7227,
      "Ġgrade": 7228,
      "Ġridicul": 7229,
      "ĠBeaut": 7230,
      "ĠBeyond": 7231,
      "Ġexchan": 7232,
      "Ġexcited": 7233,
      "INO": 7234,
      "ords": 7235,
      "ĠAnna": 7236,
      "Ġrestaur": 7237,
      "ĠWere": 7238,
      "Ġshortly": 7239,
      "Ġstarred": 7240,
      "Ġstarters": 7241,
      "ographic": 7242,
      "Ġmonot": 7243,
      "Ġmonolog": 7244,
      "Ġmonaster": 7245,
      "Ġcraft": 7246,
      "retched": 7247,
      "ĠAllen": 7248,
      "Ġmessages": 7249,
      "Ġmentioning": 7250,
      "Ġslashers": 7251,
      "lando": 7252,
      "Ġportraying": 7253,
      "Ġtopic": 7254,
      "maker": 7255,
      "Ġdeliber": 7256,
      "Ġdelivery": 7257,
      "Ġproductions": 7258,
      "Ġourselves": 7259,
      "Ġdistance": 7260,
      "Ġdistrib": 7261,
      "Ġdistingu": 7262,
      "Ġdistorted": 7263,
      "ĠThink": 7264,
      "ĠThose": 7265,
      "Ġstring": 7266,
      "Ġpasses": 7267,
      "Ġdetract": 7268,
      "Ġdeterm": 7269,
      "ĠWhite": 7270,
      "Ġpromising": 7271,
      "ĠLuis": 7272,
      "ĠEverybody": 7273,
      "Ġpurcha": 7274,
      "ĠClub": 7275,
      "Ġinvolvement": 7276,
      "Ġexpert": 7277,
      "Ġemotionally": 7278,
      "Ġhelped": 7279,
      "Ġretarded": 7280,
      "Ġzombies": 7281,
      "Ġguessing": 7282,
      "ĠChristie": 7283,
      "Ġmargin": 7284,
      "ĠDeed": 7285,
      "Ġvisible": 7286,
      "Ġirony": 7287,
      "Ġpaycheck": 7288,
      "Ġsupernatural": 7289,
      "Ġsuccessfully": 7290,
      "Ġtransf": 7291,
      "!\"<": 7292,
      "Ġreflect": 7293,
      "going": 7294,
      "Ġmoronic": 7295,
      "Ġstops": 7296,
      "Ġadvise": 7297,
      "Ġadvance": 7298,
      "shine": 7299,
      "Ġopposed": 7300,
      "Ġtechnique": 7301,
      "Ġtechniques": 7302,
      "Ġrule": 7303,
      "Ġstaying": 7304,
      "ĠConst": 7305,
      "Ġstranger": 7306,
      "ĠAmrita": 7307,
      "Ġspending": 7308,
      "Ġexplains": 7309,
      "Ġinfamous": 7310,
      "Ġfigures": 7311,
      "Ġdamage": 7312,
      "Ġdamaged": 7313,
      "ĠCharlotte": 7314,
      "ĠDana": 7315,
      "ĠPlay": 7316,
      "Ġcheese": 7317,
      "Ġattraction": 7318,
      "Ġangle": 7319,
      "Ġallows": 7320,
      "Ġstrongly": 7321,
      "Ġreturning": 7322,
      "Ġsentence": 7323,
      "Ġladen": 7324,
      "Ġbuildings": 7325,
      "uries": 7326,
      "Ġposit": 7327,
      "Ġdancer": 7328,
      "ĠBrown": 7329,
      "ĠBrothers": 7330,
      "Ġfeatured": 7331,
      "Ġgirlfriends": 7332,
      "Ġpolitically": 7333,
      "Ġcartoons": 7334,
      "Ġweeks": 7335,
      "Ġboyfriends": 7336,
      "ATE": 7337,
      "Ġcatch": 7338,
      "Ġcatches": 7339,
      "Ġcannibals": 7340,
      "Ġparody": 7341,
      "ĠTristan": 7342,
      "Ġmusicals": 7343,
      "Ġsilver": 7344,
      "Ġbarrel": 7345,
      "Ġmillionaire": 7346,
      "Ġequal": 7347,
      "Ġstreng": 7348,
      "Ġyesterday": 7349,
      "ciousness": 7350,
      "Ġerrors": 7351,
      "Ġlosing": 7352,
      "Ġlabel": 7353,
      "ĠTomatoes": 7354,
      "Ġresemble": 7355,
      "Ġsuffer": 7356,
      "Ġsleeping": 7357,
      "Ġmeth": 7358,
      "Ġholds": 7359,
      "ĠHallor": 7360,
      "Ġconcern": 7361,
      "Ġcritic": 7362,
      "Ġporno": 7363,
      "Ġheavily": 7364,
      "Ġdeeper": 7365,
      "Ġopinions": 7366,
      "Ġmilitary": 7367,
      "Ġsolve": 7368,
      "Ġexisted": 7369,
      "Ġimmense": 7370,
      "Ġimmature": 7371,
      "ĠUSA": 7372,
      "Ġassuming": 7373,
      "Ġdisgusted": 7374,
      "Ġmixed": 7375,
      "ceiving": 7376,
      "Ġexposed": 7377,
      "Ġcombined": 7378,
      "Ġlesbianism": 7379,
      "ĠFloriane": 7380,
      "ĠGermany": 7381,
      "Ġmystical": 7382,
      "Ġcompetent": 7383,
      "Ġmurdere": 7384,
      "Ġtasteful": 7385,
      "Ġcrying": 7386,
      "ĠBern": 7387,
      "ĠBarjatya": 7388,
      "ĠFilms": 7389,
      "Ġsympath": 7390,
      "Ġsympathetic": 7391,
      "ACT": 7392,
      "Ġgrows": 7393,
      "Ġdiscovers": 7394,
      "Ġreminds": 7395,
      "Ġreminded": 7396,
      "Ġoccasional": 7397,
      "Ġstrangely": 7398,
      "Ġballs": 7399,
      "Ġstatue": 7400,
      "Ġunlikely": 7401,
      "ĠLucas": 7402,
      "Ġbullet": 7403,
      "Ġnonsensical": 7404,
      "ĠNazis": 7405,
      "Ġofficial": 7406,
      "dowed": 7407,
      "Ġdangerous": 7408,
      "Ġinspir": 7409,
      "Ġinspired": 7410,
      "ĠDOGS": 7411,
      "ĠNaturally": 7412,
      "Ġresponse": 7413,
      "Ġcelebrated": 7414,
      "Ġbanter": 7415,
      "Ġbirthday": 7416,
      "Ġmentally": 7417,
      "Ġlatest": 7418,
      "Ġinitially": 7419,
      "Ġlifeless": 7420,
      "Ġfrustration": 7421,
      "Ġfrustrating": 7422,
      "ĠPatrick": 7423,
      "ĠBloodsuck": 7424,
      "ĠNicholas": 7425,
      "monster": 7426,
      "Ġcynicism": 7427,
      "Ġmodels": 7428,
      "Ġstretched": 7429,
      "ĠHarry": 7430,
      "Ġdozens": 7431,
      "opsis": 7432,
      "Ġobsession": 7433,
      "Ġaccidentally": 7434,
      "Ġcircumst": 7435,
      "Ġdropped": 7436,
      "ĠBasic": 7437,
      "ĠBoys": 7438,
      "Ġprepared": 7439,
      "Descent": 7440,
      "burgh": 7441,
      "twist": 7442,
      "Ġwanders": 7443,
      "Ġbathroom": 7444,
      "ĠEVERY": 7445,
      "Ġfaithful": 7446,
      "Ġelectric": 7447,
      "Ġfrag": 7448,
      "Ġframe": 7449,
      "Ġinternational": 7450,
      "ĠSHE": 7451,
      "ĠJulie": 7452,
      "Ġcloser": 7453,
      "Ġdisplays": 7454,
      "Ġcorrectly": 7455,
      "Ġmagnificent": 7456,
      "Ġburst": 7457,
      "Ġreplaced": 7458,
      "Ġstealing": 7459,
      "ĠCHILD": 7460,
      "ĠComm": 7461,
      "Ġcliche": 7462,
      "Ġcliches": 7463,
      "Ġprincip": 7464,
      "Ġavail": 7465,
      "Ġsneak": 7466,
      "Ġjuvenile": 7467,
      "ĠWallach": 7468,
      "Ġsurvived": 7469,
      "Ġcompanion": 7470,
      "Ġdelightful": 7471,
      "Ġcruelty": 7472,
      "Ġnarrow": 7473,
      "ĠAfrican": 7474,
      "ĠRussian": 7475,
      "Ġambiguity": 7476,
      "ĠSchaech": 7477,
      "Ġsitcoms": 7478,
      "Ġsynopsis": 7479,
      "Ġhundreds": 7480,
      "ĠBrooks": 7481,
      "roughout": 7482,
      "Ġtask": 7483,
      "Ġtemper": 7484,
      "Ġaston": 7485,
      "Ġsource": 7486,
      "Ġlength": 7487,
      "ĠBetsy": 7488,
      "ĠCarlton": 7489,
      "ĠDamon": 7490,
      "Ġchallenge": 7491,
      "Ġfunniest": 7492,
      "Ġinconsistent": 7493,
      "Ġfeminine": 7494,
      "Ġindependent": 7495,
      "Ġinfluence": 7496,
      "Ġhyped": 7497,
      "ĠDickens": 7498,
      "Ġvacation": 7499,
      "Ġreligious": 7500,
      "ĠMarlene": 7501,
      "Ġpseudo": 7502,
      "Halloween": 7503,
      "Ġticket": 7504,
      "Ġethnic": 7505,
      "ĠTIME": 7506,
      "Ġanxious": 7507,
      "ĠSusan": 7508,
      "Ġabandoned": 7509,
      "ĠPacino": 7510,
      "Ġintensity": 7511,
      "Ġchuckle": 7512,
      "Ġmisleading": 7513,
      "Ġreluctant": 7514,
      "Ġexplosion": 7515,
      "American": 7516,
      "Ġoffended": 7517,
      "ĠTyrannus": 7518,
      "Ġsearching": 7519,
      "ĠHistory": 7520,
      "ĠHEAVEN": 7521,
      "ĠCybill": 7522,
      "ĠMassacre": 7523,
      "Ġshoddy": 7524,
      "Ġfranchise": 7525,
      "Ġplagiar": 7526,
      "Ġvapid": 7527,
      "Ġconversation": 7528,
      "ĠOlivia": 7529,
      "Ġclumsy": 7530,
      "Ġguarantee": 7531,
      "Ġaccompan": 7532,
      "Ġshameless": 7533,
      "Ġhelicopter": 7534,
      "Ġindustry": 7535,
      "Ġindifferent": 7536,
      "ĠSimpsons": 7537,
      "Ġperspective": 7538,
      "aqt": 7539,
      "reversible": 7540,
      "Ġhospital": 7541,
      "Ġyadda": 7542,
      "ĠAIDS": 7543,
      "ĠHornby": 7544,
      "ĠWagner": 7545,
      "ĠLazerov": 7546,
      "ĠJeremy": 7547,
      "Ġunlikable": 7548,
      "ĠRafiki": 7549,
      "ĠElinore": 7550,
      "Ġhorrendous": 7551,
      "Ġsurrogate": 7552,
      "Ġdifficulty": 7553,
      "!'": 7554,
      "!?": 7555,
      "\"!": 7556,
      "\"...": 7557,
      ",...": 7558,
      "?\",": 7559,
      "Ad": 7560,
      "BO": 7561,
      "Bra": 7562,
      "Bad": 7563,
      "Buff": 7564,
      "BLE": 7565,
      "Con": 7566,
      "CON": 7567,
      "Cannon": 7568,
      "EE": 7569,
      "ET": 7570,
      "IP": 7571,
      "Jill": 7572,
      "LD": 7573,
      "LENT": 7574,
      "Mon": 7575,
      "Mat": 7576,
      "Most": 7577,
      "Ned": 7578,
      "NOT": 7579,
      "NING": 7580,
      "Pr": 7581,
      "Re": 7582,
      "She": 7583,
      "Sure": 7584,
      "Sex": 7585,
      "SPOILER": 7586,
      "US": 7587,
      "UT": 7588,
      "Wh": 7589,
      "Was": 7590,
      "Yes": 7591,
      "YLENT": 7592,
      "aime": 7593,
      "aurs": 7594,
      "can": 7595,
      "cil": 7596,
      "cus": 7597,
      "city": 7598,
      "ciously": 7599,
      "corn": 7600,
      "direct": 7601,
      "dled": 7602,
      "dramatic": 7603,
      "eating": 7604,
      "fall": 7605,
      "fast": 7606,
      "fire": 7607,
      "five": 7608,
      "from": 7609,
      "freak": 7610,
      "felt": 7611,
      "funny": 7612,
      "fashion": 7613,
      "gt": 7614,
      "gate": 7615,
      "great": 7616,
      "gue": 7617,
      "gement": 7618,
      "hour": 7619,
      "hib": 7620,
      "hony": 7621,
      "ixt": 7622,
      "ipped": 7623,
      "iastic": 7624,
      "ji": 7625,
      "ka": 7626,
      "kill": 7627,
      "kick": 7628,
      "kins": 7629,
      "ls": 7630,
      "lest": 7631,
      "lines": 7632,
      "laim": 7633,
      "liter": 7634,
      "lady": 7635,
      "mber": 7636,
      "motion": 7637,
      "million": 7638,
      "mstr": 7639,
      "oir": 7640,
      "ohn": 7641,
      "ped": 7642,
      "phan": 7643,
      "pret": 7644,
      "rast": 7645,
      "rum": 7646,
      "ration": 7647,
      "ratic": 7648,
      "rings": 7649,
      "sis": 7650,
      "sub": 7651,
      "show": 7652,
      "tar": 7653,
      "too": 7654,
      "taking": 7655,
      "two": 7656,
      "ua": 7657,
      "ued": 7658,
      "uel": 7659,
      "uart": 7660,
      "ucc": 7661,
      "vall": 7662,
      "viously": 7663,
      "vised": 7664,
      "ww": 7665,
      "when": 7666,
      "wife": 7667,
      "xed": 7668,
      "xual": 7669,
      "ye": 7670,
      "your": 7671,
      "zen": 7672,
      "zor": 7673,
      "Ġice": 7674,
      "Ġtong": 7675,
      "Ġtip": 7676,
      "Ġtorn": 7677,
      "Ġturd": 7678,
      "hey": 7679,
      "inates": 7680,
      "inburgh": 7681,
      "Ġsis": 7682,
      "Ġsust": 7683,
      "Ġsung": 7684,
      "Ġtheories": 7685,
      "Ġwha": 7686,
      "Ġwitch": 7687,
      "Ġwretched": 7688,
      "iser": 7689,
      "issy": 7690,
      "isabeth": 7691,
      "erotic": 7692,
      "Ġbes": 7693,
      "Ġbill": 7694,
      "Ġband": 7695,
      "Ġbang": 7696,
      "Ġbatt": 7697,
      "Ġbik": 7698,
      "Ġmature": 7699,
      "Ġmug": 7700,
      "Ġmund": 7701,
      "Ġmillions": 7702,
      "Ġfi": 7703,
      "Ġfu": 7704,
      "Ġfing": 7705,
      "Ġfet": 7706,
      "Ġful": 7707,
      "Ġfish": 7708,
      "Ġfoul": 7709,
      "Ġfaint": 7710,
      "Ġframes": 7711,
      "hau": 7712,
      "hall": 7713,
      "haus": 7714,
      "itc": 7715,
      "iti": 7716,
      "itar": 7717,
      "itud": 7718,
      "Ġcro": 7719,
      "Ġcand": 7720,
      "Ġcup": 7721,
      "Ġcub": 7722,
      "enes": 7723,
      "ened": 7724,
      "enas": 7725,
      "oris": 7726,
      "ornton": 7727,
      "orida": 7728,
      "esar": 7729,
      "esia": 7730,
      "Ġpoo": 7731,
      "Ġpill": 7732,
      "Ġpant": 7733,
      "Ġpound": 7734,
      "Ġpod": 7735,
      "Ġpap": 7736,
      "Ġpool": 7737,
      "Ġda": 7738,
      "Ġdow": 7739,
      "Ġdict": 7740,
      "Ġdrill": 7741,
      "Ġdump": 7742,
      "Ġdimension": 7743,
      "edge": 7744,
      "Ġlin": 7745,
      "Ġlur": 7746,
      "Ġlone": 7747,
      "Ġlake": 7748,
      "Ġinner": 7749,
      "Ġinfinitely": 7750,
      "anz": 7751,
      "ases": 7752,
      "athan": 7753,
      "ĠIF": 7754,
      "brid": 7755,
      "omer": 7756,
      "omic": 7757,
      "ombo": 7758,
      "arc": 7759,
      "Ġthick": 7760,
      "Ġthumb": 7761,
      "Ġgar": 7762,
      "Ġgut": 7763,
      "Ġgri": 7764,
      "Ġgif": 7765,
      "Ġgain": 7766,
      "Ġgift": 7767,
      "ications": 7768,
      "iceman": 7769,
      "lean": 7770,
      "othic": 7771,
      "Ġnut": 7772,
      "Ġnation": 7773,
      "Ġnational": 7774,
      "Ġnuts": 7775,
      "Ġnatives": 7776,
      "Ġninet": 7777,
      "Ġbeating": 7778,
      "Ġbeef": 7779,
      "stream": 7780,
      "utes": 7781,
      "Ġhun": 7782,
      "Ġhollow": 7783,
      "Ġhung": 7784,
      "Ġhubb": 7785,
      "aled": 7786,
      "alan": 7787,
      "ieve": 7788,
      "ĠTurn": 7789,
      "ĠTER": 7790,
      "ĠTalk": 7791,
      "ĠTechn": 7792,
      "ĠTotal": 7793,
      "iling": 7794,
      "Ġreli": 7795,
      "Ġreaching": 7796,
      "Ġreached": 7797,
      "Ġrelevant": 7798,
      "Ġreceive": 7799,
      "Ġreceiving": 7800,
      "verse": 7801,
      "Ġstro": 7802,
      "Ġstood": 7803,
      "Ġstalk": 7804,
      "Ġstairs": 7805,
      "Ġstaff": 7806,
      "race": 7807,
      "sell": 7808,
      "imum": 7809,
      "iments": 7810,
      "idn": 7811,
      "ids": 7812,
      "idmark": 7813,
      "ado": 7814,
      "ader": 7815,
      "ayer": 7816,
      "Ġanger": 7817,
      "Ġanaly": 7818,
      "chit": 7819,
      "allo": 7820,
      "allow": 7821,
      "ldom": 7822,
      "ĠAT": 7823,
      "ĠAap": 7824,
      "ĠAntonio": 7825,
      "ĠArab": 7826,
      "Ġsea": 7827,
      "Ġsevent": 7828,
      "ĠSU": 7829,
      "ĠSally": 7830,
      "ĠSound": 7831,
      "ĠSold": 7832,
      "ĠSaw": 7833,
      "ĠSave": 7834,
      "ĠSee": 7835,
      "ĠSier": 7836,
      "ĠSecond": 7837,
      "ĠSounds": 7838,
      "ĠSecondly": 7839,
      "ĠSupp": 7840,
      "ĠSaints": 7841,
      "ĠSaki": 7842,
      "Ġasp": 7843,
      "Ġyouth": 7844,
      "rig": 7845,
      "amy": 7846,
      "Ġnotch": 7847,
      "Ġnotorious": 7848,
      "ĠBand": 7849,
      "ĠBark": 7850,
      "ĠBren": 7851,
      "ĠBunny": 7852,
      "ĠBrid": 7853,
      "ĠBette": 7854,
      "Ġbutcher": 7855,
      "urre": 7856,
      "urrie": 7857,
      "illard": 7858,
      "teran": 7859,
      "Ġscat": 7860,
      "Ġscaring": 7861,
      "Ġjouissance": 7862,
      "usted": 7863,
      "ĠHad": 7864,
      "ĠHay": 7865,
      "ĠHop": 7866,
      "ĠHol": 7867,
      "ĠHind": 7868,
      "ĠHard": 7869,
      "ĠHip": 7870,
      "ĠHave": 7871,
      "ĠHope": 7872,
      "ĠHOR": 7873,
      "ĠHills": 7874,
      "ĠHagger": 7875,
      "ĠCD": 7876,
      "ĠCal": 7877,
      "ĠCent": 7878,
      "ĠCond": 7879,
      "ĠCult": 7880,
      "ĠCapt": 7881,
      "ĠCAN": 7882,
      "ĠCivil": 7883,
      "ĠCatherine": 7884,
      "ĠConsidering": 7885,
      "ĠCurrie": 7886,
      "ĠWin": 7887,
      "ĠWould": 7888,
      "ĠWalk": 7889,
      "ĠWAR": 7890,
      "ĠWidmark": 7891,
      "ĠMen": 7892,
      "ĠMust": 7893,
      "ĠMand": 7894,
      "ĠMake": 7895,
      "ĠMouse": 7896,
      "ĠMusic": 7897,
      "ĠMAKE": 7898,
      "Ġshtick": 7899,
      "unless": 7900,
      "unior": 7901,
      "Ġsoci": 7902,
      "Ġsorely": 7903,
      "Ġsuits": 7904,
      "ularly": 7905,
      "Ġdoors": 7906,
      "ĠDom": 7907,
      "ĠDuring": 7908,
      "ĠDID": 7909,
      "ĠDPP": 7910,
      "oodle": 7911,
      "Ġexit": 7912,
      "Ġexceed": 7913,
      "Ġextended": 7914,
      "Ġcomical": 7915,
      "Ġchap": 7916,
      "aste": 7917,
      "Ġalco": 7918,
      "Ġalarm": 7919,
      "redder": 7920,
      "opath": 7921,
      "Ġvent": 7922,
      "Ġvig": 7923,
      "Ġrot": 7924,
      "Ġrow": 7925,
      "Ġrhy": 7926,
      "Ġrub": 7927,
      "Ġrules": 7928,
      "ĠNY": 7929,
      "ĠNone": 7930,
      "ĠNab": 7931,
      "ĠNorth": 7932,
      "ĠNIGHT": 7933,
      "olent": 7934,
      "ĠFer": 7935,
      "ĠFive": 7936,
      "ĠFour": 7937,
      "ĠFear": 7938,
      "Ġoutrage": 7939,
      "Ġoutcome": 7940,
      "ĠPri": 7941,
      "ĠPorter": 7942,
      "ĠPossibly": 7943,
      "ĠPicture": 7944,
      "ĠList": 7945,
      "ĠLook": 7946,
      "ĠLive": 7947,
      "ĠLine": 7948,
      "ĠLore": 7949,
      "ĠLog": 7950,
      "ĠLater": 7951,
      "ĠLaug": 7952,
      "ĠLady": 7953,
      "ĠLOVE": 7954,
      "ĠLifetime": 7955,
      "ĠLacan": 7956,
      "racter": 7957,
      "ractive": 7958,
      "anted": 7959,
      "Ġmeerk": 7960,
      "ĠJoseph": 7961,
      "osing": 7962,
      "osaurs": 7963,
      "Ġnearb": 7964,
      "Ġnecessarily": 7965,
      "ookie": 7966,
      "ptic": 7967,
      "ested": 7968,
      "estrian": 7969,
      "udor": 7970,
      "udos": 7971,
      "Ġnoble": 7972,
      "Ġnostal": 7973,
      "ĠRes": 7974,
      "ĠRif": 7975,
      "ĠRog": 7976,
      "ĠRiemann": 7977,
      "igger": 7978,
      "Ġpros": 7979,
      "Ġlean": 7980,
      "ĠEX": 7981,
      "ĠEnd": 7982,
      "ĠEas": 7983,
      "ĠEach": 7984,
      "ĠEli": 7985,
      "ĠEgy": 7986,
      "ĠEllen": 7987,
      "ĠElect": 7988,
      "ĠEspecially": 7989,
      "Ġfaced": 7990,
      "Ġfabulous": 7991,
      "aker": 7992,
      "ĠGreat": 7993,
      "ĠGary": 7994,
      "ĠGina": 7995,
      "ĠGriff": 7996,
      "ĠGhost": 7997,
      "ighty": 7998,
      "Ġshed": 7999,
      "Ġsheer": 8000,
      "Ġshelf": 8001,
      "Ġloy": 8002,
      "Ġload": 8003,
      "aren": 8004,
      "icked": 8005,
      "Ġoversha": 8006,
      "Ġovercome": 8007,
      "Ġoverwhel": 8008,
      "Ġclip": 8009,
      "aginative": 8010,
      "Ġintent": 8011,
      "...\"": 8012,
      "...?": 8013,
      "....<": 8014,
      "never": 8015,
      "thon": 8016,
      "thur": 8017,
      "intosh": 8018,
      "Ġpoign": 8019,
      "ables": 8020,
      "Ġshowcase": 8021,
      "ĠKn": 8022,
      "ĠKent": 8023,
      "ĠKind": 8024,
      "ĠKap": 8025,
      "ĠKaren": 8026,
      "pless": 8027,
      "place": 8028,
      "plots": 8029,
      "Ġendings": 8030,
      "Ġprecious": 8031,
      "pleas": 8032,
      "plete": 8033,
      "Ġkillers": 8034,
      "aps": 8035,
      "Ġperpet": 8036,
      "Ġblues": 8037,
      "Ġblanks": 8038,
      "Ġargu": 8039,
      "Ġarrog": 8040,
      "Ġguard": 8041,
      "Ġdisp": 8042,
      "Ġdisser": 8043,
      "Ġhorses": 8044,
      "Ġhorrif": 8045,
      "Ġqueen": 8046,
      "Ġrealise": 8047,
      "Ġrealizes": 8048,
      "ĠVict": 8049,
      "Ġages": 8050,
      "Ġagreed": 8051,
      "ĠHeck": 8052,
      "ĠHeart": 8053,
      "ĠHeath": 8054,
      "force": 8055,
      "Ġambit": 8056,
      "oston": 8057,
      "enson": 8058,
      "rymore": 8059,
      "Ġspy": 8060,
      "Ġspout": 8061,
      "Ġspark": 8062,
      "Ġchr": 8063,
      "Ġchoices": 8064,
      "Ġchops": 8065,
      "Ġflips": 8066,
      "Ġslut": 8067,
      "Ġslack": 8068,
      "Ġslug": 8069,
      "Ġafterwards": 8070,
      "Ġrack": 8071,
      "Ġramb": 8072,
      "Ġbeings": 8073,
      "!!<": 8074,
      "elle": 8075,
      "Ġgreater": 8076,
      "ipment": 8077,
      "Ġ23": 8078,
      "----": 8079,
      "Ġeffectively": 8080,
      "Ġincl": 8081,
      "Ġenters": 8082,
      "apping": 8083,
      "appropriate": 8084,
      "Ġrecre": 8085,
      "Ġrecon": 8086,
      "Ġrecover": 8087,
      "ruci": 8088,
      "athom": 8089,
      "Ġunderde": 8090,
      "Ġcontained": 8091,
      "Ġcontrast": 8092,
      "ctional": 8093,
      "cience": 8094,
      "Ġkidney": 8095,
      "theless": 8096,
      "Ġdownload": 8097,
      "atingly": 8098,
      "Ġtrib": 8099,
      "Ġtraining": 8100,
      "Ġscreenwriter": 8101,
      "icularly": 8102,
      "Ġsurreal": 8103,
      "Ġsettle": 8104,
      "umbling": 8105,
      "ĠAlmost": 8106,
      "ĠAlien": 8107,
      "ĠAlba": 8108,
      "ĠSheriff": 8109,
      "ĠSheedy": 8110,
      "Ġcompassion": 8111,
      "awful": 8112,
      "azar": 8113,
      "Ġbuzz": 8114,
      "alem": 8115,
      "ritory": 8116,
      "Ġaccurate": 8117,
      "ĠAss": 8118,
      "ĠAside": 8119,
      "arrie": 8120,
      "Ġsubplots": 8121,
      "ĠThats": 8122,
      "Ġsmooth": 8123,
      "Ġletter": 8124,
      "spaper": 8125,
      "spirited": 8126,
      "ialogue": 8127,
      "Ġshar": 8128,
      "Ġshaft": 8129,
      "igned": 8130,
      "actic": 8131,
      "Ġnewspaper": 8132,
      "avy": 8133,
      "Ġlaughter": 8134,
      "Ġrelent": 8135,
      "Ġextent": 8136,
      "ĠNote": 8137,
      "pril": 8138,
      "Ġcourt": 8139,
      "ĠJover": 8140,
      "gger": 8141,
      "ĠBlue": 8142,
      "ĠBlonder": 8143,
      "ĠBluth": 8144,
      "Ġcareless": 8145,
      "Ġhandful": 8146,
      "Ġenjoys": 8147,
      "Ġenjoying": 8148,
      "Ġevident": 8149,
      "Ġclearer": 8150,
      "Ġfailing": 8151,
      "Ġconfession": 8152,
      "angers": 8153,
      "ĠScar": 8154,
      "ĠScot": 8155,
      "ĠScary": 8156,
      "Ġbasement": 8157,
      "Ġpossibility": 8158,
      "Ġpossibilities": 8159,
      "emption": 8160,
      "Ġconscience": 8161,
      "Ġinsight": 8162,
      "Ġinsuff": 8163,
      "Ġgradu": 8164,
      "ĠBeatty": 8165,
      "Ġexcruci": 8166,
      "Ġsincerely": 8167,
      "Ġartwork": 8168,
      "Ġpolar": 8169,
      "Ġmonks": 8170,
      "Ġpainted": 8171,
      "ĠUnion": 8172,
      "Ġglimp": 8173,
      "Ġjobs": 8174,
      "Ġattempting": 8175,
      "ĠArmy": 8176,
      "ĠArmstr": 8177,
      "ĠEvening": 8178,
      "Ġclasses": 8179,
      "Ġfriendship": 8180,
      "Ġskill": 8181,
      "Ġskies": 8182,
      "Ġsketch": 8183,
      "ĠForget": 8184,
      "Ġdramas": 8185,
      "Ġhomeless": 8186,
      "Ġhelm": 8187,
      "uese": 8188,
      "Ġconventional": 8189,
      "Ġmessed": 8190,
      "Ġgenerous": 8191,
      "bels": 8192,
      "Ġbeautifully": 8193,
      "Ġreports": 8194,
      "makers": 8195,
      "Ġalongside": 8196,
      "ails": 8197,
      "Ġstudy": 8198,
      "Ġstudio": 8199,
      "Ġhopeless": 8200,
      "Ġhopefully": 8201,
      "Ġhopelessly": 8202,
      "ĠThornton": 8203,
      "Ġimagined": 8204,
      "Ġimaginative": 8205,
      "Ġcreators": 8206,
      "Ġcreativity": 8207,
      "anna": 8208,
      "annah": 8209,
      "Ġcountless": 8210,
      "Ġhuh": 8211,
      "Ġprompt": 8212,
      "ĠJohnson": 8213,
      "ficial": 8214,
      "Ġcommit": 8215,
      "Ġcommitted": 8216,
      "ĠLuise": 8217,
      "ienced": 8218,
      "Ġpurs": 8219,
      "ĠClose": 8220,
      "Ġdevelopments": 8221,
      "otta": 8222,
      "Ġelev": 8223,
      "Ġstuffed": 8224,
      "ĠSandra": 8225,
      "Ġsmaller": 8226,
      "ĠChristian": 8227,
      "Ġdriver": 8228,
      "Ġuncut": 8229,
      "ORING": 8230,
      "Ġpicks": 8231,
      "ĠMystery": 8232,
      "Ġindie": 8233,
      "ĠAtt": 8234,
      "Ġappearances": 8235,
      "Ġriver": 8236,
      "Ġromp": 8237,
      "attractive": 8238,
      "Ġhonesty": 8239,
      "Ġadmire": 8240,
      "ĠEdinburgh": 8241,
      "Ġsequels": 8242,
      "Ġconsiderable": 8243,
      "AND": 8244,
      "*****": 8245,
      "Ġcultural": 8246,
      "Ġpops": 8247,
      "Ġpopcorn": 8248,
      "Ġeasier": 8249,
      "ĠRooney": 8250,
      "Ġrefuge": 8251,
      "ĠColor": 8252,
      "Ġexpressions": 8253,
      "Ġadvant": 8254,
      "!!!!!": 8255,
      "Ġswallow": 8256,
      "Ġpsychology": 8257,
      "Ġpsychiat": 8258,
      "ĠOrlando": 8259,
      "Ġtechnically": 8260,
      "Ġsubjected": 8261,
      "Ġsigned": 8262,
      "Ġsticks": 8263,
      "Ġsticking": 8264,
      "Ġdealt": 8265,
      "uguese": 8266,
      "Ġstrang": 8267,
      "ĠAmit": 8268,
      "ĠAmong": 8269,
      "ĠShredder": 8270,
      "Ġcharge": 8271,
      "Ġcharism": 8272,
      "ika": 8273,
      "iker": 8274,
      "Ġavoided": 8275,
      "ĠRichardson": 8276,
      "ĠDanza": 8277,
      "ĠRosanna": 8278,
      "Ġattracted": 8279,
      "Ġwaitress": 8280,
      "Ġlaws": 8281,
      "Ġratings": 8282,
      "Ġscreenplays": 8283,
      "Ġstereotype": 8284,
      "lighting": 8285,
      "Ġpulling": 8286,
      "ĠBrittany": 8287,
      "Ġdevices": 8288,
      "Ġfeaturing": 8289,
      "Ġrapid": 8290,
      "Ġdescription": 8291,
      "OOOO": 8292,
      "Ġcaused": 8293,
      "ĠSimon": 8294,
      "Ġshockingly": 8295,
      "Ġmagically": 8296,
      "Ġillustr": 8297,
      "Ġjumping": 8298,
      "Ġbringing": 8299,
      "Ġparan": 8300,
      "ĠTrue": 8301,
      "ĠTroopers": 8302,
      "Ġspoiler": 8303,
      "Ġhistorically": 8304,
      "Ġpowerful": 8305,
      "ĠLeonard": 8306,
      "Ġengage": 8307,
      "Ġengaged": 8308,
      "Ġquestionable": 8309,
      "Ġfocusing": 8310,
      "Ġequipment": 8311,
      "Ġwinds": 8312,
      "Ġlosers": 8313,
      "Ġrandomly": 8314,
      "ĠWalt": 8315,
      "ĠPrice": 8316,
      "ĠLetter": 8317,
      "Ġsuggests": 8318,
      "letons": 8319,
      "ĠCharacters": 8320,
      "ĠChainsaw": 8321,
      "ĠDesi": 8322,
      "Ġdeeply": 8323,
      "Ġstruggles": 8324,
      "Ġfantasies": 8325,
      "Ġcondition": 8326,
      "Ġprovides": 8327,
      "Ġ2001": 8328,
      "Ġ2007": 8329,
      "Ġprisoners": 8330,
      "irable": 8331,
      "Ġlimit": 8332,
      "Ġstrip": 8333,
      "Ġrange": 8334,
      "Ġranks": 8335,
      "Ġarrive": 8336,
      "Ġgrandparent": 8337,
      "Ġtheatrical": 8338,
      "Ġwinning": 8339,
      "Ġexpos": 8340,
      "Ġexpense": 8341,
      "Ġcombine": 8342,
      "Ġapartment": 8343,
      "ĠInde": 8344,
      "ĠTrain": 8345,
      "Ġcomplaint": 8346,
      "ĠOscars": 8347,
      "Ġpersonalities": 8348,
      "Ġsensitive": 8349,
      "Ġholid": 8350,
      "Ġunden": 8351,
      "Ġconnected": 8352,
      "characters": 8353,
      "suit": 8354,
      "Ġsquare": 8355,
      "Ġmasked": 8356,
      "ĠCraig": 8357,
      "ĠWoody": 8358,
      "ĠJimmy": 8359,
      "Ġchicken": 8360,
      "Ġburned": 8361,
      "Ġpunishment": 8362,
      "Ġdigital": 8363,
      "Ġstabs": 8364,
      "ĠMartians": 8365,
      "Ġmeaningful": 8366,
      "Ġrepresents": 8367,
      "ĠFrancisco": 8368,
      "198": 8369,
      "Ġbullets": 8370,
      "Ġfascist": 8371,
      "Ġsubstitute": 8372,
      "Ġcarrying": 8373,
      "THING": 8374,
      "writers": 8375,
      "Ġultimate": 8376,
      "rifice": 8377,
      "Ġjournalist": 8378,
      "ĠNatasha": 8379,
      "Ġimprove": 8380,
      "Nothing": 8381,
      "Ġbanal": 8382,
      "Ġbathing": 8383,
      "Ġfashioned": 8384,
      "Ġanswers": 8385,
      "Ġlifetime": 8386,
      "ĠMatthew": 8387,
      "Ġsoldiers": 8388,
      "Ġfrustrated": 8389,
      "Ġcorruption": 8390,
      "ĠCanada": 8391,
      "watch": 8392,
      "Ġpunchline": 8393,
      "Ġhyenas": 8394,
      "ifties": 8395,
      "Ġspecies": 8396,
      "Ġphysically": 8397,
      "Ġbearable": 8398,
      "Ġminority": 8399,
      "Ġscrewball": 8400,
      "Ġincomprehens": 8401,
      "Ġrecorded": 8402,
      "Ġempathy": 8403,
      "Ġcleaning": 8404,
      "Ġsatisfying": 8405,
      "Ġwander": 8406,
      "Ġcaliber": 8407,
      "Ġloosely": 8408,
      "ĠCounty": 8409,
      "Ġorganic": 8410,
      "Ġargue": 8411,
      "Ġtradem": 8412,
      "Ġtradition": 8413,
      "ĠMcDowell": 8414,
      "Ġessence": 8415,
      "Ġtormented": 8416,
      "Ġpanels": 8417,
      "Ġrendered": 8418,
      "Ġplanning": 8419,
      "ĠProbably": 8420,
      "Ġlegit": 8421,
      "Ġclosing": 8422,
      "Ġsacrifice": 8423,
      "Ġamongst": 8424,
      "Ġremarkable": 8425,
      "Ġattacks": 8426,
      "ĠStarship": 8427,
      "ĠAnneMarie": 8428,
      "Ġphotographed": 8429,
      "2002": 8430,
      "world": 8431,
      "Ġcasino": 8432,
      "Ġhideous": 8433,
      "Ġhinted": 8434,
      "Ġproceedings": 8435,
      "Ġpreviews": 8436,
      "ĠHellman": 8437,
      "Ġrobber": 8438,
      "Ġaccomplished": 8439,
      "Ġconstruction": 8440,
      "Ġconstructed": 8441,
      "rsula": 8442,
      "Ġavid": 8443,
      "Ġcowboys": 8444,
      "Ġhammer": 8445,
      "Ġreference": 8446,
      "Ġreferences": 8447,
      "Ġstunning": 8448,
      "Ġurge": 8449,
      "ĠCelie": 8450,
      "ĠCelia": 8451,
      "Ġsophom": 8452,
      "ĠDuvall": 8453,
      "ĠDripped": 8454,
      "ĠDrivas": 8455,
      "Ġthankless": 8456,
      "Ġblatantly": 8457,
      "Ġcompanies": 8458,
      "Ġgenuinely": 8459,
      "Ġdistracting": 8460,
      "Ġdistraction": 8461,
      "Ġbalance": 8462,
      "ĠAfrica": 8463,
      "Ġsegment": 8464,
      "ĠSexo": 8465,
      "Ġlifted": 8466,
      "Ġjudge": 8467,
      "ĠHawke": 8468,
      "ĠPalmer": 8469,
      "ĠRamones": 8470,
      "ĠKirkland": 8471,
      "Ġambiguous": 8472,
      "Ġslapstick": 8473,
      "Ġcaricature": 8474,
      "Ġcaricatures": 8475,
      "Ġindividual": 8476,
      "Ġregarding": 8477,
      "Ġdepicting": 8478,
      "Ġbelongs": 8479,
      "produced": 8480,
      "Ġpitiful": 8481,
      "Ġdedicated": 8482,
      "ileschi": 8483,
      "Ġyelling": 8484,
      "Ġshopping": 8485,
      "ĠNasty": 8486,
      "ĠJanine": 8487,
      "Ġadvertising": 8488,
      "Ġchooses": 8489,
      "Ġchoosing": 8490,
      "ĠUsually": 8491,
      "Ġremembers": 8492,
      "Ġremembered": 8493,
      "ĠAshford": 8494,
      "Ġcringing": 8495,
      "Ġpresumed": 8496,
      "Ġmotivations": 8497,
      "Ġicon": 8498,
      "hetically": 8499,
      "ĠImagine": 8500,
      "Ġstalked": 8501,
      "ĠSOYLENT": 8502,
      "ĠDraper": 8503,
      "ĠPamela": 8504,
      "ĠLouise": 8505,
      "ĠLatin": 8506,
      "ĠRussel": 8507,
      "ĠRoyal": 8508,
      "Ġclunker": 8509,
      "Ġmotorcy": 8510,
      "ĠMcCorm": 8511,
      "Ġestablished": 8512,
      "Ġflashbacks": 8513,
      "Ġsenior": 8514,
      "Ġskeletons": 8515,
      "Ġfifty": 8516,
      "Ġinhabited": 8517,
      "ĠSwedish": 8518,
      "ĠHUGE": 8519,
      "ĠPython": 8520,
      "ĠPortuguese": 8521,
      "Ġunimaginative": 8522,
      "Ġarmor": 8523,
      "Ġdismal": 8524,
      "Ġdespicable": 8525,
      "Ġrecycled": 8526,
      "Ġcameras": 8527,
      "Ġmontage": 8528,
      "Ġeducational": 8529,
      "Ġgymnastics": 8530,
      "Edison": 8531,
      "Ġpedestrian": 8532,
      "Ġinexpl": 8533,
      "ĠAnthony": 8534,
      "ĠSunday": 8535,
      "Ġlibrary": 8536,
      "ĠMiike": 8537,
      "Ġdodgy": 8538,
      "Ġmaintain": 8539,
      "Ġaltogether": 8540,
      "Ġunusual": 8541,
      "Ġuniversal": 8542,
      "ĠRainer": 8543,
      "ĠGreek": 8544,
      "Ġmansion": 8545,
      "Ġendearing": 8546,
      "ĠYears": 8547,
      "Ġcompletists": 8548,
      "ĠShelley": 8549,
      "Ġinsomnia": 8550,
      "Ġartificial": 8551,
      "Ġconvinced": 8552,
      "Ġconclude": 8553,
      "Ġuncomfortable": 8554,
      "ĠDornwinkle": 8555,
      "Brittany": 8556,
      "Thank": 8557,
      "Ġmarshal": 8558,
      "Ġmuddled": 8559,
      "Ġcigare": 8560,
      "Ġcuriosity": 8561,
      "Ġdynamic": 8562,
      "aturday": 8563,
      "Ġisolated": 8564,
      "ĠTexas": 8565,
      "ĠSanguis": 8566,
      "ĠSebastian": 8567,
      "Ġassociated": 8568,
      "ĠBoulting": 8569,
      "Ġwebsite": 8570,
      "Ġscandal": 8571,
      "ĠWyoming": 8572,
      "ĠPollack": 8573,
      "ĠJuhi": 8574,
      "ĠRomanian": 8575,
      "ĠGentileschi": 8576,
      "ĠIngrid": 8577,
      "Ġmisfortune": 8578,
      "ĠShecky": 8579,
      "ĠScrooge": 8580,
      "Ġexchange": 8581,
      "Ġmonastery": 8582,
      "Ġdistinguish": 8583,
      "ĠHalloran": 8584,
      "Ġmurderer": 8585,
      "ĠBloodsucker": 8586,
      "Ġcircumstances": 8587,
      "Cannonball": 8588,
      "Ġtongue": 8589,
      "Ġsisters": 8590,
      "Ġmundane": 8591,
      "itudes": 8592,
      "Ġgifted": 8593,
      "Ġhubby": 8594,
      "ĠTurner": 8595,
      "ĠAapke": 8596,
      "Ġseventies": 8597,
      "ĠBrennan": 8598,
      "ĠHindi": 8599,
      "ĠHaggerty": 8600,
      "ĠConduce": 8601,
      "Ġalcohol": 8602,
      "ĠNabors": 8603,
      "Ġnearby": 8604,
      "ĠEgypt": 8605,
      "ĠGriffith": 8606,
      "Ġovershadowed": 8607,
      "Ġarrogant": 8608,
      "Ġdisservice": 8609,
      "Ġunderdeveloped": 8610,
      "Ġglimpse": 8611,
      "ĠArmstrong": 8612,
      "Ġgrandparents": 8613,
      "')": 8614,
      "'-": 8615,
      "(..": 8616,
      ",(": 8617,
      ".(": 8618,
      "11": 8619,
      "30": 8620,
      "90": 8621,
      "98": 8622,
      "AX": 8623,
      "AZ": 8624,
      "Add": 8625,
      "Abo": 8626,
      "Avoid": 8627,
      "AIL": 8628,
      "ALL": 8629,
      "AVE": 8630,
      "ALLY": 8631,
      "Ben": 8632,
      "Break": 8633,
      "Bottom": 8634,
      "CE": 8635,
      "CR": 8636,
      "CT": 8637,
      "Can": 8638,
      "Car": 8639,
      "Char": 8640,
      "CAR": 8641,
      "Dead": 8642,
      "Devil": 8643,
      "EM": 8644,
      "EY": 8645,
      "Ext": 8646,
      "ELLOW": 8647,
      "Fran": 8648,
      "Frank": 8649,
      "GN": 8650,
      "Ge": 8651,
      "Go": 8652,
      "Good": 8653,
      "Grant": 8654,
      "Gordon": 8655,
      "IA": 8656,
      "II": 8657,
      "IT": 8658,
      "Ir": 8659,
      "Ind": 8660,
      "IST": 8661,
      "IVE": 8662,
      "John": 8663,
      "Lo": 8664,
      "Let": 8665,
      "Last": 8666,
      "Movie": 8667,
      "Morgan": 8668,
      "NA": 8669,
      "NH": 8670,
      "None": 8671,
      "Note": 8672,
      "OK": 8673,
      "OP": 8674,
      "Our": 8675,
      "OID": 8676,
      "PS": 8677,
      "Per": 8678,
      "Paul": 8679,
      "Paper": 8680,
      "RS": 8681,
      "Return": 8682,
      "Ste": 8683,
      "TF": 8684,
      "TS": 8685,
      "Tom": 8686,
      "Too": 8687,
      "Thing": 8688,
      "UL": 8689,
      "Very": 8690,
      "VOID": 8691,
      "^^": 8692,
      "bot": 8693,
      "bviously": 8694,
      "cat": 8695,
      "cake": 8696,
      "cism": 8697,
      "cogn": 8698,
      "crack": 8699,
      "dis": 8700,
      "die": 8701,
      "dies": 8702,
      "dict": 8703,
      "dance": 8704,
      "dead": 8705,
      "eble": 8706,
      "east": 8707,
      "ender": 8708,
      "fs": 8709,
      "fight": 8710,
      "fting": 8711,
      "free": 8712,
      "fold": 8713,
      "fact": 8714,
      "fits": 8715,
      "faced": 8716,
      "got": 8717,
      "gard": 8718,
      "gman": 8719,
      "gold": 8720,
      "hist": 8721,
      "hine": 8722,
      "hiker": 8723,
      "ih": 8724,
      "ipe": 8725,
      "jump": 8726,
      "jointed": 8727,
      "lk": 8728,
      "loo": 8729,
      "lond": 8730,
      "luck": 8731,
      "must": 8732,
      "mind": 8733,
      "master": 8734,
      "movies": 8735,
      "mission": 8736,
      "non": 8737,
      "nce": 8738,
      "ners": 8739,
      "numb": 8740,
      "ok": 8741,
      "oia": 8742,
      "ooney": 8743,
      "pa": 8744,
      "pan": 8745,
      "pot": 8746,
      "pol": 8747,
      "pres": 8748,
      "person": 8749,
      "porn": 8750,
      "panic": 8751,
      "rating": 8752,
      "rised": 8753,
      "roup": 8754,
      "rants": 8755,
      "rban": 8756,
      "such": 8757,
      "sup": 8758,
      "silly": 8759,
      "sorry": 8760,
      "tr": 8761,
      "tman": 8762,
      "town": 8763,
      "tub": 8764,
      "tail": 8765,
      "uh": 8766,
      "ught": 8767,
      "ugs": 8768,
      "vil": 8769,
      "vant": 8770,
      "vity": 8771,
      "vial": 8772,
      "vard": 8773,
      "vability": 8774,
      "wes": 8775,
      "west": 8776,
      "wind": 8777,
      "wful": 8778,
      "word": 8779,
      "worth": 8780,
      "yl": 8781,
      "yan": 8782,
      "ych": 8783,
      "zes": 8784,
      "zed": 8785,
      "Ġ#": 8786,
      "Ġ_": 8787,
      "Ġtv": 8788,
      "Ġtin": 8789,
      "Ġtre": 8790,
      "Ġtie": 8791,
      "Ġtent": 8792,
      "Ġtad": 8793,
      "Ġtall": 8794,
      "Ġtable": 8795,
      "Ġtub": 8796,
      "Ġtied": 8797,
      "Ġtempted": 8798,
      "Ġape": 8799,
      "Ġaest": 8800,
      "Ġaided": 8801,
      "Ġakin": 8802,
      "Ġaka": 8803,
      "hew": 8804,
      "hees": 8805,
      "hett": 8806,
      "inci": 8807,
      "inations": 8808,
      "inuity": 8809,
      "Ġsand": 8810,
      "Ġsunny": 8811,
      "really": 8812,
      "rene": 8813,
      "reens": 8814,
      "Ġwake": 8815,
      "Ġwrest": 8816,
      "Ġwrap": 8817,
      "Ġwakes": 8818,
      "Ġopt": 8819,
      "isp": 8820,
      "isdom": 8821,
      "erb": 8822,
      "eria": 8823,
      "Ġbim": 8824,
      "Ġbart": 8825,
      "Ġbast": 8826,
      "Ġbud": 8827,
      "Ġbog": 8828,
      "Ġbitten": 8829,
      "Ġbait": 8830,
      "Ġbtw": 8831,
      "Ġmort": 8832,
      "Ġfil": 8833,
      "Ġfro": 8834,
      "Ġfurn": 8835,
      "Ġfaster": 8836,
      "Ġfishing": 8837,
      "Ġfirm": 8838,
      "Ġfifties": 8839,
      "happy": 8840,
      "habit": 8841,
      "itous": 8842,
      "Ġcore": 8843,
      "Ġcue": 8844,
      "Ġcents": 8845,
      "Ġcats": 8846,
      "Ġcabin": 8847,
      "enced": 8848,
      "encies": 8849,
      "order": 8850,
      "orney": 8851,
      "oura": 8852,
      "esse": 8853,
      "onous": 8854,
      "onne": 8855,
      "onaug": 8856,
      "onika": 8857,
      "Ġtos": 8858,
      "Ġtoile": 8859,
      "Ġtomb": 8860,
      "Ġtomat": 8861,
      "Ġpg": 8862,
      "Ġple": 8863,
      "Ġpink": 8864,
      "Ġphen": 8865,
      "Ġpsy": 8866,
      "Ġpals": 8867,
      "Ġpier": 8868,
      "Ġpump": 8869,
      "Ġpages": 8870,
      "Ġpitch": 8871,
      "Ġpushing": 8872,
      "Ġprank": 8873,
      "Ġoffered": 8874,
      "Ġdom": 8875,
      "Ġdated": 8876,
      "Ġdarn": 8877,
      "Ġdiver": 8878,
      "Ġdivers": 8879,
      "Ġduty": 8880,
      "Ġlic": 8881,
      "Ġlust": 8882,
      "Ġlap": 8883,
      "Ġlamer": 8884,
      "Ġinj": 8885,
      "Ġinane": 8886,
      "Ġinherent": 8887,
      "Ġinhabit": 8888,
      "asy": 8889,
      "asper": 8890,
      "ashes": 8891,
      "atisf": 8892,
      "athered": 8893,
      "ĠIreland": 8894,
      "arian": 8895,
      "Ġgor": 8896,
      "Ġgal": 8897,
      "Ġgim": 8898,
      "Ġgather": 8899,
      "Ġgosh": 8900,
      "Ġgarden": 8901,
      "ician": 8902,
      "icians": 8903,
      "lection": 8904,
      "otes": 8905,
      "otente": 8906,
      "Ġeer": 8907,
      "Ġeld": 8908,
      "Ġears": 8909,
      "Ġnu": 8910,
      "Ġnat": 8911,
      "Ġnine": 8912,
      "Ġnetwork": 8913,
      "Ġbegg": 8914,
      "Ġbehold": 8915,
      "stone": 8916,
      "stop": 8917,
      "Ġhood": 8918,
      "Ġhost": 8919,
      "Ġhitting": 8920,
      "Ġhype": 8921,
      "Ġhitch": 8922,
      "Ġhooked": 8923,
      "ali": 8924,
      "also": 8925,
      "iem": 8926,
      "ĠTW": 8927,
      "ĠTak": 8928,
      "ĠTass": 8929,
      "ĠTake": 8930,
      "ĠTry": 8931,
      "ĠTram": 8932,
      "ĠTOO": 8933,
      "ĠTalking": 8934,
      "vere": 8935,
      "Ġhall": 8936,
      "Ġhaun": 8937,
      "Ġhailed": 8938,
      "ils": 8939,
      "iler": 8940,
      "ilarly": 8941,
      "Ġonline": 8942,
      "Ġrev": 8943,
      "Ġreun": 8944,
      "Ġrepr": 8945,
      "Ġreplay": 8946,
      "Ġrewr": 8947,
      "Ġreappe": 8948,
      "Ġrebell": 8949,
      "Ġreaches": 8950,
      "owitz": 8951,
      "verty": 8952,
      "verted": 8953,
      "Ġheal": 8954,
      "Ġheight": 8955,
      "Ġstake": 8956,
      "Ġstated": 8957,
      "Ġstead": 8958,
      "Ġstamp": 8959,
      "Ġstunk": 8960,
      "Ġstaged": 8961,
      "Ġstole": 8962,
      "Ġstalking": 8963,
      "rame": 8964,
      "ragon": 8965,
      "ims": 8966,
      "imsy": 8967,
      "iders": 8968,
      "idel": 8969,
      "idate": 8970,
      "idiculous": 8971,
      "idential": 8972,
      "entiment": 8973,
      "ada": 8974,
      "adays": 8975,
      "adji": 8976,
      "etc": 8977,
      "ethe": 8978,
      "ayed": 8979,
      "ooley": 8980,
      "Ġyach": 8981,
      "Ġanalog": 8982,
      "Ġforces": 8983,
      "ĠAB": 8984,
      "ĠAF": 8985,
      "ĠAL": 8986,
      "ĠAR": 8987,
      "ĠAk": 8988,
      "ĠAlf": 8989,
      "ĠAWAY": 8990,
      "Ġselect": 8991,
      "Ġsewer": 8992,
      "Ġseldom": 8993,
      "ithing": 8994,
      "ĠSw": 8995,
      "ĠSam": 8996,
      "ĠSame": 8997,
      "ĠSchool": 8998,
      "ĠSPOILER": 8999,
      "ĠSlas": 9000,
      "ĠSouthern": 9001,
      "ĠSgt": 9002,
      "ĠSaturday": 9003,
      "irteen": 9004,
      "rolling": 9005,
      "ams": 9006,
      "aman": 9007,
      "amera": 9008,
      "ĠBL": 9009,
      "ĠBU": 9010,
      "ĠBurn": 9011,
      "ĠBru": 9012,
      "ĠBuff": 9013,
      "ĠBrend": 9014,
      "ĠBottom": 9015,
      "ĠBenson": 9016,
      "ĠBORING": 9017,
      "Ġlip": 9018,
      "Ġliqu": 9019,
      "Ġliking": 9020,
      "urv": 9021,
      "illig": 9022,
      "illian": 9023,
      "illery": 9024,
      "Ġweep": 9025,
      "Ġjog": 9026,
      "Ġjarring": 9027,
      "Ġjerky": 9028,
      "ĠHas": 9029,
      "ĠHot": 9030,
      "ĠHill": 9031,
      "ĠHel": 9032,
      "ĠHans": 9033,
      "ĠHugh": 9034,
      "ĠHATE": 9035,
      "ĠCo": 9036,
      "ĠChe": 9037,
      "ĠCer": 9038,
      "ĠCut": 9039,
      "ĠCall": 9040,
      "ĠCand": 9041,
      "ĠCass": 9042,
      "ĠCost": 9043,
      "ĠCry": 9044,
      "ĠCertain": 9045,
      "ĠCurt": 9046,
      "ĠCont": 9047,
      "ĠComp": 9048,
      "ĠCOM": 9049,
      "ĠCurious": 9050,
      "ĠCamer": 9051,
      "ĠCitiz": 9052,
      "ĠCesar": 9053,
      "ĠCIA": 9054,
      "Ġkung": 9055,
      "Ġkik": 9056,
      "Ġkooky": 9057,
      "Ġkitc": 9058,
      "Ġkudos": 9059,
      "ĠWard": 9060,
      "ĠWrit": 9061,
      "ĠWonder": 9062,
      "ĠWords": 9063,
      "ĠWTF": 9064,
      "ĠMY": 9065,
      "ĠMa": 9066,
      "ĠMel": 9067,
      "ĠMain": 9068,
      "ĠMind": 9069,
      "ĠMars": 9070,
      "ĠMark": 9071,
      "ĠMillion": 9072,
      "ĠMAY": 9073,
      "ĠMTV": 9074,
      "ĠMORE": 9075,
      "Ġactions": 9076,
      "Ġshif": 9077,
      "Ġshook": 9078,
      "Ġships": 9079,
      "Ġshirt": 9080,
      "una": 9081,
      "Ġsocc": 9082,
      "emic": 9083,
      "Ġsuite": 9084,
      "Ġsuited": 9085,
      "ulp": 9086,
      "ulos": 9087,
      "ulated": 9088,
      "ifer": 9089,
      "iforn": 9090,
      "essing": 9091,
      "ĠDorm": 9092,
      "ĠDere": 9093,
      "ĠDawn": 9094,
      "ĠDomin": 9095,
      "ĠDara": 9096,
      "ĠDoodle": 9097,
      "ĠDooley": 9098,
      "Ġplug": 9099,
      "Ġmaze": 9100,
      "Ġwhore": 9101,
      "Ġwholly": 9102,
      "Ġabused": 9103,
      "Ġallig": 9104,
      "elic": 9105,
      "eliness": 9106,
      "aude": 9107,
      "Ġcommend": 9108,
      "Ġchant": 9109,
      "astrop": 9110,
      "Ġalbe": 9111,
      "Ġorange": 9112,
      "opic": 9113,
      "oples": 9114,
      "ophile": 9115,
      "usive": 9116,
      "Ġvign": 9117,
      "Ġvoid": 9118,
      "Ġrit": 9119,
      "Ġruth": 9120,
      "Ġrude": 9121,
      "Ġrises": 9122,
      "Ġrotten": 9123,
      "gered": 9124,
      "ĠNa": 9125,
      "ĠNell": 9126,
      "ĠNope": 9127,
      "ĠNavy": 9128,
      "ĠNadji": 9129,
      "olical": 9130,
      "ĠFed": 9131,
      "ĠFan": 9132,
      "ĠFine": 9133,
      "ĠFond": 9134,
      "ĠFree": 9135,
      "ĠFortun": 9136,
      "ĠFilip": 9137,
      "Ġoutput": 9138,
      "Ġoutfit": 9139,
      "ĠPC": 9140,
      "ĠPre": 9141,
      "ĠPur": 9142,
      "ĠPBS": 9143,
      "istant": 9144,
      "istically": 9145,
      "ĠLt": 9146,
      "ĠLiv": 9147,
      "ĠLew": 9148,
      "ĠLarge": 9149,
      "ĠLOL": 9150,
      "ĠLillian": 9151,
      "antial": 9152,
      "Ġmeat": 9153,
      "Ġcong": 9154,
      "ĠJoy": 9155,
      "ĠJans": 9156,
      "ĠJord": 9157,
      "ĠJanet": 9158,
      "ĠJudd": 9159,
      "ĠJenn": 9160,
      "Ġcancer": 9161,
      "osk": 9162,
      "osloo": 9163,
      "Ġunw": 9164,
      "Ġunit": 9165,
      "Ġunoriginal": 9166,
      "Ġunpleas": 9167,
      "Ġunattractive": 9168,
      "ptions": 9169,
      "ums": 9170,
      "umble": 9171,
      "uments": 9172,
      "uded": 9173,
      "ĠRa": 9174,
      "ĠRi": 9175,
      "ĠRing": 9176,
      "ĠRep": 9177,
      "ĠRoll": 9178,
      "ĠRazz": 9179,
      "ĠRizz": 9180,
      "ĠRemember": 9181,
      "ĠRangers": 9182,
      "ĠRhine": 9183,
      "iger": 9184,
      "Ġupl": 9185,
      "Ġupset": 9186,
      "ĠEb": 9187,
      "ĠEarly": 9188,
      "ĠEither": 9189,
      "ĠOH": 9190,
      "ĠOg": 9191,
      "Ġtiming": 9192,
      "ĠGR": 9193,
      "ĠGar": 9194,
      "ĠGal": 9195,
      "ĠGall": 9196,
      "ĠGive": 9197,
      "ĠGang": 9198,
      "ĠGates": 9199,
      "ĠGOL": 9200,
      "ĠGRE": 9201,
      "ĠGreg": 9202,
      "ĠGarden": 9203,
      "ĠGordon": 9204,
      "ĠGanz": 9205,
      "ĠGothic": 9206,
      "ĠGazar": 9207,
      "Ġfeed": 9208,
      "Ġfeeble": 9209,
      "Ġwhats": 9210,
      "Ġwhatnot": 9211,
      "Ġtherefore": 9212,
      "Ġsheep": 9213,
      "Ġevening": 9214,
      "Ġseek": 9215,
      "Ġtroub": 9216,
      "ongru": 9217,
      "Ġmyth": 9218,
      "Ġmythology": 9219,
      "Ġovert": 9220,
      "Ġoverused": 9221,
      "Ġoverboard": 9222,
      "oyager": 9223,
      "Ġclin": 9224,
      "Ġclar": 9225,
      "Ġclut": 9226,
      "Ġcliff": 9227,
      "agan": 9228,
      "agree": 9229,
      "aghett": 9230,
      "ours": 9231,
      "ourse": 9232,
      "Ġintr": 9233,
      "Ġ180": 9234,
      "odge": 9235,
      "odger": 9236,
      "Ġteas": 9237,
      "Ġponder": 9238,
      "Ġpoetic": 9239,
      "Ġpoverty": 9240,
      "ogy": 9241,
      "ogen": 9242,
      "ogue": 9243,
      "ogical": 9244,
      "reated": 9245,
      "abh": 9246,
      "abolical": 9247,
      "ĠKid": 9248,
      "ĠKill": 9249,
      "ĠKnow": 9250,
      "ĠKurt": 9251,
      "ĠKlond": 9252,
      "Ġensemble": 9253,
      "placed": 9254,
      "Ġpreacher": 9255,
      "Ġprecise": 9256,
      "Ġpretend": 9257,
[...]
